<unk>	0
<s>	0
</s>	0
,	-2.89795
▁	-2.97688
。	-3.84828
、	-4.03265
的	-4.54607
:	-4.60119
)	-4.70911
(	-4.92633
▁-	-5.30706
和	-5.42307
/	-5.49741
年	-5.59053
.	-5.62303
1	-5.62568
;	-5.65647
月	-5.71595
在	-5.76573
公司	-5.80809
3	-5.87293
2	-5.88626
“	-5.90812
为	-5.9617
▁1	-5.96577
▁年	-6.0617
5	-6.06323
................	-6.08549
-	-6.10387
4	-6.11234
▁2	-6.13051
及	-6.15253
”	-6.19972
6	-6.21708
日	-6.22287
与	-6.23001
▁月	-6.25014
等	-6.32781
▁3	-6.34919
7	-6.44531
10	-6.46401
《	-6.49772
中	-6.50083
元	-6.50982
8	-6.52797
▁(	-6.53681
9	-6.54071
▁0	-6.56129
▁4	-6.56185
12	-6.56524
对	-6.57996
▁5	-6.63488
是	-6.6523
》	-6.65255
或	-6.68938
市场	-6.71247
将	-6.80239
A	-6.83852
亿元	-6.83991
▁6	-6.85301
E	-6.86574
以	-6.86645
▁图	-6.8851
11	-6.89085
了	-6.89447
▁资料来源	-6.89903
行业	-6.90704
企业	-6.927
▁日	-6.94739
▁亿元	-6.94755
万元	-6.96261
|	-6.96366
有	-7.00716
股	-7.0519
产品	-7.05776
吨	-7.07546
▁7	-7.08086
Q	-7.09428
投资	-7.09525
项目	-7.09611
业务	-7.11387
后	-7.12083
com	-7.13136
中国	-7.14108
▁10	-7.15694
20	-7.16481
▁元	-7.17545
从	-7.17563
30	-7.19161
▁8	-7.19283
+	-7.19672
一	-7.21491
价格	-7.21845
新	-7.22518
并	-7.23143
上	-7.2559
▁9	-7.26057
2018	-7.27318
0	-7.28497
大	-7.29348
但	-7.30474
15	-7.32312
而	-7.32798
至	-7.35104
进行	-7.35304
以及	-7.35893
不	-7.36382
情况	-7.37465
股份	-7.37875
▁12	-7.40065
2017	-7.40148
其	-7.40467
于	-7.41325
18	-7.42601
其中	-7.43044
Wind	-7.43136
集团	-7.4469
300	-7.457
16	-7.46308
通过	-7.46333
17	-7.46465
2019	-7.48326
数据	-7.50237
14	-7.50337
人	-7.51152
也	-7.51189
19	-7.51893
服务	-7.52129
2016	-7.52286
高	-7.52541
@	-7.52615
13	-7.53522
到	-7.53592
科技	-7.55248
(%)	-7.57079
预计	-7.57313
发展	-7.58808
_	-7.59289
向	-7.59488
同比增长	-7.59661
▁图表	-7.60607
22	-7.60626
31	-7.6094
▁11	-7.61073
由	-7.61884
三	-7.62551
21	-7.62885
SZ	-7.63296
2015	-7.63868
已	-7.6414
有限公司	-7.6448
23	-7.64756
时	-7.6499
未来	-7.66495
需求	-7.66619
国内	-7.66906
方面	-7.67676
技术	-7.67808
50	-7.6812
目前	-7.68805
以上	-7.68927
增长	-7.69256
号	-7.69577
▁2022	-7.69931
▁20	-7.69967
实现	-7.70398
2020	-7.70469
28	-7.71364
本公司	-7.71769
25	-7.71886
同时	-7.72161
▁2021	-7.73551
性	-7.74176
根据	-7.7456
美国	-7.74586
可	-7.74739
指数	-7.75175
24	-7.75276
▁数据来源	-7.75509
风险	-7.76054
前	-7.7727
销售	-7.79112
]	-7.80504
同比	-7.80753
27	-7.80927
SH	-7.81017
增加	-7.81097
部分	-7.81748
▁2020	-7.8182
下	-7.82336
S	-7.83344
影响	-7.835
26	-7.8362
2021	-7.84255
二	-7.84692
提升	-7.85321
政策	-7.85412
股份有限公司	-7.85446
建设	-7.86014
年度	-7.86159
金	-7.86384
提供	-7.86545
会	-7.86621
29	-7.86757
交易	-7.87185
2022	-7.87384
基金	-7.87433
cn	-7.87627
关于	-7.87735
收入	-7.88298
▁公司	-7.88402
管理	-7.88682
▁2019	-7.88732
国际	-7.88845
上市公司	-7.89805
该	-7.89843
主要	-7.89856
客户	-7.89912
▁2023	-7.9031
报告	-7.90451
▁[	-7.90623
G	-7.90675
市	-7.90822
包括	-7.91242
自	-7.91772
达	-7.91964
我们	-7.92004
产业	-7.9204
资金	-7.923
相关	-7.92301
】	-7.92349
▁2018	-7.92735
全球	-7.92827
其他	-7.93423
成本	-7.93432
板块	-7.93662
均	-7.9415
银行	-7.94852
作为	-7.95096
持续	-7.95452
天	-7.95576
▁2017	-7.96013
▁-1	-7.96232
▁0.00	-7.96903
家	-7.97312
且	-7.9737
平台	-7.97463
生产	-7.97489
系统	-7.97541
使用	-7.97593
▁15	-7.98388
s	-7.98772
H	-7.99103
2014	-7.99618
约	-7.9985
华	-8.00189
万	-8.00223
资产	-8.00813
多	-8.00988
量	-8.01238
就	-8.01271
信息	-8.01341
上涨	-8.01397
▁13	-8.0285
化	-8.02893
之	-8.03354
领域	-8.03497
上海	-8.03578
区	-8.0363
01	-8.03734
国家	-8.04746
Table	-8.04823
设备	-8.04993
经济	-8.05157
B	-8.05169
▁2016	-8.05342
点	-8.06213
被	-8.06607
期	-8.06967
品牌	-8.07259
▁14	-8.07852
2023	-8.08352
预期	-8.08411
分析	-8.08997
整体	-8.09047
机构	-8.09238
工作	-8.09257
金融	-8.09735
地	-8.09857
发布	-8.09927
已经	-8.10199
计划	-8.10656
汽车	-8.1134
02	-8.11646
所	-8.11672
下降	-8.11756
▁万吨	-8.12114
占比	-8.12238
规模	-8.12354
库存	-8.12559
”)	-8.12573
业绩	-8.12948
截至	-8.13019
调整	-8.13159
?	-8.13188
▁2015	-8.13496
▁22	-8.13558
03	-8.13738
本	-8.14066
亿	-8.14074
M	-8.14236
100	-8.14596
C	-8.15291
消费	-8.15723
未	-8.15883
较	-8.16359
以下简称	-8.16448
研究	-8.16536
来	-8.16702
▁亿	-8.16778
因	-8.16817
▁16	-8.16909
小	-8.17615
要	-8.17796
单位	-8.18187
占	-8.18392
分	-8.18585
外	-8.19096
40	-8.19407
继续	-8.19544
类	-8.19589
▁21	-8.20283
能	-8.20661
▁【	-8.20981
增速	-8.21211
海	-8.21773
可以	-8.21774
如	-8.22176
无	-8.22204
要求	-8.22332
▁单位	-8.22583
发行	-8.22762
可能	-8.23027
数	-8.23243
第	-8.23995
完成	-8.24292
内	-8.24524
下跌	-8.24543
按	-8.24639
用	-8.25108
▁23	-8.25142
率	-8.2526
▁2014	-8.25779
受	-8.25854
达到	-8.26194
04	-8.26268
时间	-8.26383
07	-8.26655
500	-8.26764
▁18	-8.27025
比	-8.27114
关注	-8.2731
全国	-8.27399
60	-8.27463
周	-8.27543
金额	-8.27746
网	-8.28056
2013	-8.28111
应	-8.28149
美元	-8.28263
对于	-8.28303
报	-8.28414
水	-8.28511
各	-8.28661
证券	-8.28817
因此	-8.28941
股东	-8.29019
▁19	-8.29039
水平	-8.29141
09	-8.29351
则	-8.29377
▁17	-8.29819
按照	-8.30423
来看	-8.30497
四	-8.30871
实施	-8.31092
投资者	-8.31193
工程	-8.31272
超	-8.31374
非	-8.31497
减少	-8.31604
本周	-8.31962
产能	-8.32033
股票	-8.32231
需要	-8.32318
股权	-8.32999
08	-8.33136
经营	-8.33268
公告	-8.33671
表示	-8.3384
近	-8.33888
出	-8.33993
方式	-8.33999
看	-8.34058
超过	-8.34195
维持	-8.34433
▁300	-8.34615
北京	-8.34641
都	-8.34801
-1	-8.34811
人民币	-8.35185
变化	-8.35555
国	-8.35822
个	-8.36289
由于	-8.36314
短期	-8.36362
我国	-8.36567
材料	-8.36606
出现	-8.3675
▁A	-8.36903
开始	-8.37065
▁表	-8.37382
05	-8.37517
▁1、	-8.37537
▁30	-8.37592
分别为	-8.37633
▁2、	-8.38749
万吨	-8.38782
创新	-8.38944
累计	-8.38985
600	-8.39052
06	-8.39103
本次	-8.39104
利润	-8.39119
发	-8.39251
HK	-8.39524
随着	-8.39768
具有	-8.40018
五	-8.40269
评级	-8.40272
能源	-8.40541
估值	-8.40608
能力	-8.40832
有望	-8.41113
》、《	-8.412
D	-8.41518
收益	-8.41589
推动	-8.42101
支持	-8.42272
合计	-8.42356
之间	-8.42502
分别	-8.428
内容	-8.43001
机	-8.43164
!	-8.43366
法	-8.43441
产量	-8.43525
表现	-8.43797
电子	-8.44001
▁股	-8.44127
问题	-8.44466
▁-2	-8.44628
云	-8.45226
成为	-8.45869
环比	-8.45976
合作	-8.45981
网络	-8.46061
进入	-8.46236
智能	-8.46459
Y	-8.46531
上述	-8.46541
出口	-8.46737
——	-8.46774
方	-8.46847
布局	-8.47157
资源	-8.47269
上市	-8.47402
美	-8.47513
力	-8.47787
提高	-8.4803
正	-8.48167
更	-8.48389
强	-8.49291
▁《	-8.49463
价	-8.49533
今年	-8.4958
总	-8.49682
安	-8.49865
车	-8.50182
路	-8.50207
数量	-8.50231
进一步	-8.50341
明显	-8.50452
预测	-8.50522
2012	-8.50756
型	-8.5076
低	-8.51076
相对	-8.51207
新增	-8.51427
地区	-8.51551
或者	-8.51954
百万元	-8.51981
收购	-8.5209
业	-8.52165
获得	-8.52422
综合	-8.52628
策略	-8.52938
通	-8.53084
▁(1)	-8.53089
5%	-8.53343
实际	-8.53612
运营	-8.53832
经	-8.5396
这	-8.54038
▁万元	-8.5407
应用	-8.54366
成交	-8.54414
工业	-8.54652
城市	-8.55117
德	-8.55208
好	-8.55247
持有	-8.5527
成	-8.55429
盈利	-8.55453
融资	-8.5553
东	-8.55655
近期	-8.55874
P	-8.56035
比例	-8.56692
▁	-8.56854
上升	-8.56896
长	-8.56956
开发	-8.5713
线	-8.5731
城	-8.57425
▁2013	-8.57774
www	-8.57801
价值	-8.57817
科	-8.57933
▁25	-8.58047
-12	-8.58136
部	-8.58198
平均	-8.58229
适用	-8.58233
利	-8.58237
建议	-8.58326
期货	-8.59024
万股	-8.59086
存在	-8.59211
优势	-8.59269
所有	-8.59582
%	-8.59597
进口	-8.5968
长期	-8.59827
政府	-8.59864
36	-8.59966
重点	-8.60028
研发	-8.60064
中心	-8.60133
仍	-8.6028
▁(2)	-8.60488
标准	-8.60494
转债	-8.6068
-10	-8.60755
龙头	-8.60928
渠道	-8.6143
指标	-8.6146
▁证券研究报告	-8.61541
没有	-8.61543
导致	-8.61685
32	-8.62274
当前	-8.62297
-11	-8.62659
名	-8.62677
还	-8.6269
目标	-8.62699
原	-8.62713
▁600	-8.629
特	-8.62992
承诺	-8.63251
安全	-8.63472
全	-8.63545
▁S	-8.63839
▁24	-8.6386
期间	-8.63889
的议案	-8.63923
电	-8.63942
海外	-8.6404
pct	-8.64166
图	-8.64321
▁2.	-8.64423
形成	-8.64658
倍	-8.65105
wind	-8.65178
90	-8.65206
光	-8.65517
拟	-8.66183
采用	-8.66264
商	-8.6629
稳定	-8.66508
70	-8.66533
阶段	-8.66711
走势	-8.66876
x	-8.66973
买入	-8.67042
10%	-8.67043
用户	-8.67141
设计	-8.67282
任何	-8.67301
...............	-8.67469
香港	-8.67482
控制	-8.67611
即	-8.67644
▁买入	-8.67695
m	-8.6778
35	-8.6781
费用	-8.67945
开展	-8.67966
区域	-8.68034
://	-8.68065
净利润	-8.68248
▁1.	-8.68325
▁其他	-8.68354
共	-8.68413
”,	-8.68579
销量	-8.68583
▁50	-8.68634
环保	-8.68654
周期	-8.68714
源	-8.68853
债券	-8.68926
33	-8.68948
资本	-8.69187
左右	-8.69326
方案	-8.69469
董事	-8.69599
行情	-8.69678
同	-8.70019
同比下降	-8.70109
互联网	-8.70137
环境	-8.70152
X	-8.70216
给	-8.70261
显示	-8.70626
计算	-8.70709
信	-8.7101
利率	-8.71087
PE	-8.7145
38	-8.71538
推进	-8.71593
趋势	-8.71668
核心	-8.71682
结构	-8.71719
拥有	-8.71746
明	-8.71821
战略	-8.71857
参与	-8.71905
模式	-8.72007
双	-8.72014
全面	-8.72063
合同	-8.72075
积极	-8.72101
协议	-8.72246
一个	-8.72346
再	-8.72394
ETF	-8.72469
者	-8.72486
子	-8.72688
80	-8.72724
》,	-8.72753
文	-8.73107
有关	-8.73382
披露	-8.73555
单	-8.73569
跌	-8.7363
39	-8.73681
平	-8.73764
支付	-8.73915
上周	-8.74086
符合	-8.74489
▁倍	-8.74492
▁--	-8.74523
▁一	-8.74569
W	-8.74576
▁40	-8.74685
▁项目	-8.74739
次	-8.74795
星	-8.74845
毛利率	-8.74848
贷款	-8.74849
人员	-8.74871
龙	-8.75107
▁	-8.75113
公司的	-8.75148
规划	-8.75161
不适用	-8.75163
新能源	-8.75194
基本	-8.75233
式	-8.75555
▁根据	-8.75646
体系	-8.75818
▁3、	-8.75828
45	-8.75943
有效	-8.75989
行	-8.76116
*	-8.76161
如果	-8.76179
开	-8.76413
▁AA	-8.76893
▁二	-8.7699
创	-8.77145
本报告	-8.77161
控股	-8.77476
降低	-8.77883
说	-8.77913
监管	-8.78082
采购	-8.78113
级	-8.78169
37	-8.78618
执行	-8.78647
商业	-8.78724
压力	-8.78735
T	-8.79079
a	-8.79195
申请	-8.79203
王	-8.7937
支撑	-8.7954
认为	-8.80207
▁26	-8.80276
2011	-8.80278
重	-8.80455
▁P	-8.80819
发行人	-8.8094
最	-8.80949
变动	-8.80966
K	-8.8103
改善	-8.8103
▁三	-8.81267
品种	-8.81461
42	-8.81511
张	-8.81765
投	-8.81856
▁2024	-8.81863
产业链	-8.82162
生	-8.82209
处于	-8.82331
▁个月内	-8.82347
加速	-8.82507
活动	-8.82542
沪深	-8.82569
子公司	-8.82585
”。	-8.82591
—	-8.82665
200	-8.82866
▁家	-8.82969
地产	-8.82984
》(	-8.83173
制造	-8.8322
F	-8.83326
除	-8.83522
~	-8.83592
全部	-8.83624
建	-8.83639
组合	-8.83786
分析师	-8.83856
34	-8.84315
的影响	-8.84315
▁风险提示	-8.84316
若	-8.84345
保持	-8.84361
▁100	-8.84479
取得	-8.84519
对应	-8.84585
▁of	-8.84779
▁号	-8.84894
系	-8.84967
N	-8.8498
同意	-8.85239
▁28	-8.85364
▁指数	-8.85365
发生	-8.85426
0.00	-8.85445
推荐	-8.85493
电力	-8.85552
但是	-8.85579
过	-8.85744
教育	-8.85843
因素	-8.85871
41	-8.85915
下游	-8.86031
▁2012	-8.86049
表	-8.86181
逐步	-8.86273
▁中国	-8.8628
直接	-8.86288
下滑	-8.86327
空间	-8.86347
我们认为	-8.86388
43	-8.86434
费	-8.8648
52	-8.86517
确定	-8.86837
涨幅	-8.86855
▁个	-8.86867
不断	-8.87028
▁27	-8.87241
两	-8.87244
▁月份	-8.87254
股价	-8.87286
营业收入	-8.87436
具备	-8.87444
加快	-8.87941
仅	-8.87955
涨	-8.8798
先生	-8.88075
起	-8.8816
房地产	-8.88369
48	-8.88373
能够	-8.88498
▁第	-8.88598
说明	-8.88628
山	-8.8863
以下	-8.88846
55	-8.89011
事项	-8.89024
度	-8.89065
▁增持	-8.8946
连续	-8.89556
▁60	-8.89691
购买	-8.8993
打造	-8.90029
做	-8.90087
重要	-8.90346
西	-8.90777
75	-8.90912
个股	-8.90992
是否	-8.91015
此外	-8.91152
保证	-8.91229
确认	-8.91306
51	-8.91471
转	-8.91685
意见	-8.9171
供应	-8.91723
保障	-8.91846
如下	-8.9231
▁万	-8.92391
医药	-8.92408
400	-8.92408
港	-8.92518
46	-8.9252
制	-8.9255
及其	-8.92634
▁美元	-8.92766
基于	-8.9299
收	-8.93261
▁合计	-8.93347
具体	-8.93357
局	-8.93398
董事会	-8.93438
下行	-8.93496
▁-3	-8.9355
不同	-8.93719
会议	-8.9396
44	-8.94201
称	-8.94251
传统	-8.9428
林	-8.94285
后续	-8.94369
反弹	-8.94577
公司公告	-8.94613
我	-8.94655
重大	-8.94717
债	-8.94741
成长	-8.94841
医疗	-8.95007
游戏	-8.9516
芯片	-8.95164
▁□	-8.95264
订单	-8.95316
商品	-8.95357
▁3.	-8.95604
c	-8.95641
增持	-8.95646
请务必阅读正文之后的免责条款部分	-8.9569
联	-8.95859
六	-8.95997
这些	-8.96118
之后	-8.96298
改革	-8.96481
第一	-8.96488
▁个月	-8.96564
▁个百分点	-8.9674
49	-8.96765
47	-8.96777
加强	-8.96842
优化	-8.96874
条件	-8.97002
投入	-8.97045
软件	-8.97141
▁29	-8.97252
个月	-8.97319
为主	-8.97325
深圳	-8.97544
含	-8.97544
南	-8.97628
1000	-8.97691
最高	-8.9772
公	-8.97863
升	-8.97927
泰	-8.98201
收益率	-8.98319
增	-8.98446
合	-8.98543
票	-8.98681
让	-8.98859
选择	-8.98859
保险	-8.9923
▁31	-8.99234
央行	-8.99481
营收	-8.99505
处理	-8.99514
▁|	-8.9965
个人	-8.997
一般	-8.99871
历史	-8.99894
L	-8.99902
保	-8.99917
监事	-8.99961
管	-8.99979
用于	-9.00367
▁注	-9.00378
零售	-9.0044
手	-9.00488
基础	-9.00488
▁电话	-9.00516
评估	-9.00537
江	-9.00578
-2	-9.00596
独立	-9.00699
面	-9.00706
56	-9.0093
县	-9.01029
突破	-9.01072
·	-9.0115
基	-9.0116
建立	-9.01161
物流	-9.01265
推出	-9.01431
宝	-9.01516
瑞	-9.01528
每	-9.01545
得	-9.01546
O	-9.01618
专业	-9.01744
黄金	-9.0181
流动性	-9.01886
需	-9.01918
R	-9.01934
财务	-9.01957
回落	-9.02213
100%	-9.02258
制度	-9.02299
002	-9.02398
扩大	-9.02408
台	-9.02514
煤炭	-9.02992
▁从	-9.03188
相比	-9.0337
58	-9.03472
制造业	-9.03508
公布	-9.03618
质量	-9.0376
疫情	-9.04079
款	-9.04139
品	-9.04161
受到	-9.04179
▁来源	-9.04206
001	-9.04581
回升	-9.0464
旅游	-9.04661
上行	-9.04682
端	-9.0479
统计	-9.05021
促进	-9.05031
力度	-9.05036
亏损	-9.05043
利用	-9.05048
▁√	-9.05069
提出	-9.05275
项	-9.05391
▁(3)	-9.05551
比较	-9.05723
钢	-9.05746
65	-9.05856
只	-9.05954
▁其中	-9.05979
依据	-9.06067
价差	-9.06236
健康	-9.06268
通信	-9.06362
2010	-9.06392
文化	-9.06462
层	-9.06556
53	-9.06725
报价	-9.06811
之一	-9.0685
20%	-9.07074
李	-9.07126
快速	-9.07181
▁本周	-9.07206
规定	-9.07206
主	-9.07234
00	-9.07466
66	-9.07505
▁中性	-9.0768
59	-9.07688
法律	-9.07912
红	-9.08001
恢复	-9.08662
V	-9.09107
加	-9.09141
日本	-9.09244
富	-9.09309
/11	-9.09312
最终	-9.09347
考虑	-9.09354
当	-9.09966
54	-9.10192
立	-9.10305
√	-9.10344
57	-9.10414
生物	-9.10495
值	-9.10562
博	-9.10976
据	-9.11112
结合	-9.11167
公司章程	-9.11213
里	-9.11236
虽然	-9.1125
电池	-9.11307
=	-9.1137
正在	-9.11381
运行	-9.11448
带来	-9.11501
▁35	-9.11508
转型	-9.11542
▁0%	-9.11664
板	-9.117
15%	-9.11765
-15	-9.1178
86	-9.11821
位	-9.12025
厂	-9.12063
72	-9.12065
波动	-9.12084
又	-9.12279
基本面	-9.12297
e	-9.12391
AI	-9.12458
联合	-9.12467
措施	-9.12624
产	-9.12841
克	-9.12872
供应商	-9.12952
62	-9.13076
前期	-9.13088
▁请务必	-9.13112
心	-9.13116
结果	-9.13192
"	-9.13325
带动	-9.13543
化工	-9.13578
道	-9.13615
指	-9.13655
-3	-9.13709
▁the	-9.13848
应当	-9.13859
68	-9.13913
百	-9.13942
兴	-9.13953
把	-9.14041
中的	-9.1411
低于	-9.14209
新能源汽车	-9.14294
完善	-9.14319
任	-9.1444
员工	-9.14478
组织	-9.14496
机制	-9.14552
现货	-9.14594
供给	-9.14796
现	-9.14821
超预期	-9.14894
头	-9.14978
-09	-9.15035
斯	-9.15057
▁-4	-9.15203
逐渐	-9.15236
银	-9.15416
决定	-9.15455
BP	-9.15476
马	-9.1555
覆盖	-9.15606
成交量	-9.1568
大幅	-9.15689
全年	-9.15841
代表	-9.15927
82	-9.16018
升级	-9.16022
文件	-9.16074
亚	-9.16104
▁本	-9.16122
亦	-9.16367
▁页	-9.1637
67	-9.16433
募集资金	-9.16525
持股	-9.16663
实	-9.16702
微	-9.16743
69	-9.16812
部门	-9.16841
担保	-9.1686
99	-9.16894
加工	-9.17131
卡	-9.17224
标的	-9.17305
▁点	-9.17384
厂商	-9.17455
信用	-9.17464
片	-9.17727
油	-9.17826
团队	-9.17849
气	-9.18106
风	-9.18117
/10	-9.18134
2000	-9.18156
食品	-9.18276
85	-9.18281
涉及	-9.18315
期限	-9.18417
公司在	-9.18517
观点	-9.18567
71	-9.18593
营销	-9.18705
资料	-9.1873
阳	-9.18916
落地	-9.18936
▁B	-9.19055
方向	-9.19095
权	-9.19101
月份	-9.19105
▁营业收入	-9.19152
y	-9.19177
的风险	-9.19525
权益	-9.1969
▁36	-9.19707
77	-9.19727
还是	-9.19761
较大	-9.19813
&	-9.19906
主体	-9.19932
95	-9.20034
货币	-9.20096
贸易	-9.20131
83	-9.20399
▁33	-9.20448
63	-9.20509
现金	-9.20588
铜	-9.20616
也是	-9.20625
认购	-9.20642
增强	-9.20693
名称	-9.20853
组	-9.20889
▁	-9.21148
世界	-9.21262
有限责任公司	-9.21299
...	-9.21732
。”	-9.21796
▁上海	-9.21815
高端	-9.21837
本人	-9.21838
亿美元	-9.21885
更多	-9.21978
整合	-9.22017
智	-9.2204
64	-9.22083
/12	-9.22139
功能	-9.22289
丰	-9.22332
范围	-9.22361
有限	-9.22448
不存在	-9.22494
盛	-9.22534
康	-9.22637
拓展	-9.22661
器	-9.2274
89	-9.22782
操作	-9.22924
租赁	-9.2296
成功	-9.22991
北	-9.23006
78	-9.23015
正式	-9.23079
生态	-9.23237
延续	-9.23371
61	-9.23378
热	-9.23406
EPS	-9.23447
安排	-9.23533
参考	-9.23607
广	-9.23617
不得	-9.23639
中证	-9.23758
成立	-9.23773
相	-9.2405
共同	-9.2418
加大	-9.24277
转让	-9.24312
配置	-9.24415
明确	-9.24449
-20	-9.24576
96	-9.24587
显著	-9.2459
进行了	-9.24749
不超过	-9.24755
系列	-9.24762
▁四	-9.24771
手机	-9.24822
▁10%	-9.24883
份额	-9.24972
负责	-9.25092
▁37	-9.25129
▁截至	-9.25136
江苏	-9.25304
扩张	-9.25338
动力	-9.25358
料	-9.25442
消费者	-9.25455
91	-9.25554
▁32	-9.25557
此次	-9.25578
机会	-9.25607
▁亿美元	-9.25653
场	-9.25702
交	-9.25705
驱动	-9.25718
工	-9.25844
使	-9.25983
▁否	-9.2606
就是	-9.26069
减持	-9.26156
较为	-9.26159
盘	-9.26168
集中	-9.26343
钢铁	-9.26451
着	-9.26491
房	-9.26551
额	-9.26636
区间	-9.26657
76	-9.26687
的情况	-9.26716
去	-9.26867
较高	-9.26904
跌幅	-9.26956
回	-9.27031
▁34	-9.27054
92	-9.27057
贡献	-9.27067
条	-9.27117
乐	-9.27154
入	-9.27166
首次	-9.27182
规范	-9.27398
矿	-9.27483
药	-9.27527
陈	-9.27529
召开	-9.27546
▁4、	-9.27725
数字	-9.2773
进	-9.2784
归母净利润	-9.27866
仍然	-9.28078
t	-9.28087
市值	-9.2816
这一	-9.282
-14	-9.28287
87	-9.28296
他	-9.28318
▁38	-9.28338
n	-9.28383
解决	-9.287
Jan	-9.28831
右轴	-9.28852
的公告	-9.28937
这个	-9.28951
山东	-9.28957
无法	-9.28982
88	-9.29087
履行	-9.29116
均价	-9.29157
84	-9.29188
此	-9.292
81	-9.29215
73	-9.29227
-13	-9.29273
证	-9.29281
合理	-9.29322
98	-9.29382
97	-9.29424
行为	-9.29445
构成	-9.29475
-17	-9.29481
▁0.00%	-9.29622
美联储	-9.29627
去年	-9.29753
煤	-9.29754
半导体	-9.29819
▁指	-9.29845
得到	-9.29873
七	-9.29907
g	-9.29966
800	-9.30128
终端	-9.30138
▁净利润	-9.30147
汇	-9.30293
工具	-9.30326
/01	-9.30447
▁20%	-9.30566
原油	-9.30698
满足	-9.30741
学	-9.30801
授权	-9.30878
周报	-9.30972
-16	-9.31044
▁天	-9.31053
今日	-9.31125
建筑	-9.31169
▁C	-9.3129
负债	-9.31319
清	-9.31331
宣布	-9.31418
-01	-9.31495
内部	-9.31522
浙江	-9.31758
▁www	-9.31887
的规定	-9.31903
站	-9.31922
79	-9.32014
广州	-9.32104
有所	-9.32121
先	-9.32133
程序	-9.32141
社会	-9.32154
第二	-9.32206
▁4.	-9.32234
店	-9.32249
复制	-9.32254
装备	-9.32315
首	-9.32338
普	-9.32386
土地	-9.32535
运	-9.32535
跟踪	-9.32583
针对	-9.32605
设立	-9.32746
下调	-9.3276
震荡	-9.32765
93	-9.32811
集	-9.32944
因为	-9.33116
原因	-9.3325
更加	-9.33257
不能	-9.33426
1.5	-9.33478
▁002	-9.33601
独立董事	-9.33608
不及预期	-9.33769
深	-9.33843
生活	-9.33868
2024	-9.33882
ST	-9.33914
恒	-9.3398
定	-9.3424
本次交易	-9.34427
采取	-9.34472
事	-9.34542
对比	-9.34571
光伏	-9.34591
福	-9.3465
尔	-9.34655
高于	-9.34774
飞	-9.34906
充分	-9.34928
i	-9.35167
最新	-9.35221
交通	-9.3541
事件	-9.35434
▁分析师	-9.35571
大型	-9.35571
50%	-9.35579
变	-9.35735
▁39	-9.35783
线上	-9.35838
修复	-9.35869
日期	-9.3587
支出	-9.35886
关系	-9.36129
推广	-9.36233
时代	-9.36353
之前	-9.3648
登记	-9.36541
模型	-9.36587
▁免责声明	-9.36603
-07	-9.36734
数据显示	-9.36773
报告期内	-9.36862
▁2011	-9.36878
远	-9.36889
欧洲	-9.36917
办理	-9.3707
农业	-9.37267
合约	-9.37341
▁45	-9.37383
属于	-9.37519
处	-9.37611
74	-9.37799
一些	-9.37804
限制	-9.3785
净	-9.37862
上半年	-9.37866
此前	-9.38078
省	-9.3812
易	-9.38257
持仓	-9.38309
债务	-9.38433
bp	-9.38458
总体	-9.38487
注册	-9.38597
给予	-9.38689
威	-9.38786
降	-9.38815
过程中	-9.38885
机械	-9.38929
新的	-9.39007
航空	-9.39058
呈现	-9.39095
-4	-9.39117
请	-9.39138
军	-9.3926
▁美国	-9.39384
来源	-9.39605
【	-9.39652
150	-9.39658
九	-9.39898
金属	-9.399
OF	-9.39906
检测	-9.39936
配套	-9.39994
通知	-9.40006
▁80	-9.40073
对公司	-9.40093
以来	-9.40134
高级管理人员	-9.40161
医院	-9.40248
实际控制人	-9.40289
玻璃	-9.40292
▁司	-9.40294
产生	-9.40336
责任	-9.40365
-18	-9.40369
刘	-9.4051
永	-9.40648
变更	-9.40769
券商	-9.40819
再次	-9.40886
判断	-9.40975
黄	-9.41117
买	-9.41159
WIND	-9.41352
口	-9.41359
94	-9.41403
批准	-9.41473
保护	-9.41588
▁HK	-9.41606
件	-9.4182
准确	-9.41858
带	-9.42011
d	-9.42123
咨询	-9.42129
作	-9.42193
依然	-9.42204
2009	-9.42356
减	-9.42433
门	-9.42447
回购	-9.42623
波	-9.42757
董事长	-9.42858
曾	-9.42945
供应链	-9.42987
物	-9.4321
效率	-9.43284
▁200	-9.43446
电商	-9.43448
体	-9.43462
AA	-9.43482
尚未	-9.43485
嘉	-9.43502
拉	-9.43627
受益	-9.43762
/09	-9.43766
签署	-9.4385
承担	-9.43914
人才	-9.44043
主题	-9.44081
盈利能力	-9.44119
并且	-9.44154
释放	-9.44182
控股股东	-9.44188
媒体	-9.44221
集团有限公司	-9.44254
类型	-9.44345
因子	-9.44374
叠加	-9.44405
酒	-9.44487
-19	-9.44511
幅度	-9.44612
广东	-9.44653
▁行业	-9.44831
股市	-9.44926
在任何情况下	-9.45042
▁52	-9.45135
工厂	-9.45161
获	-9.45319
更新	-9.45324
装置	-9.4548
▁-5	-9.45497
销售额	-9.4554
▁北京	-9.45559
▁周	-9.45615
补偿	-9.4566
记者	-9.45704
铝	-9.45981
约为	-9.4602
不足	-9.46188
动	-9.46418
-05	-9.46463
运输	-9.46521
如何	-9.46666
定价	-9.46808
工艺	-9.46818
使得	-9.46891
见	-9.47032
米	-9.47102
方法	-9.4721
自身	-9.47362
十	-9.47374
余额	-9.47423
▁and	-9.4748
公开	-9.47506
国产	-9.47529
州	-9.47534
Z	-9.47546
/07	-9.47671
及时	-9.47694
智慧	-9.47703
w	-9.47722
▁43	-9.4776
市场的	-9.47782
状况	-9.47821
发现	-9.47885
空	-9.47895
位于	-9.47975
-5	-9.4811
花	-9.48127
人工智能	-9.48149
同比增速	-9.48205
▁毛利率	-9.48238
测算	-9.48315
);	-9.48427
主力	-9.48574
▁PE	-9.4866
启动	-9.48748
招商证券	-9.48765
所以	-9.48777
优质	-9.48911
广告	-9.48993
科技股份有限公司	-9.49022
解决方案	-9.49097
铁路	-9.49209
2008	-9.4923
》。	-9.49238
声明	-9.49273
连	-9.49301
测试	-9.49429
▁42	-9.49498
补贴	-9.49583
申万	-9.49729
关键	-9.49811
假设	-9.49839
民	-9.50046
▁——	-9.50212
看好	-9.50377
年末	-9.50442
▁据	-9.50448
#	-9.50471
居民	-9.50517
状态	-9.50539
▁无	-9.50622
大数据	-9.50782
b	-9.50797
玉米	-9.50816
从事	-9.50828
的情况下	-9.50832
复苏	-9.50901
强化	-9.5091
差	-9.50916
控	-9.50932
主要是	-9.51128
▁44	-9.5117
八	-9.51172
第三	-9.51343
审议	-9.51368
30%	-9.514
双方	-9.51407
不会	-9.51409
构建	-9.51445
增量	-9.51512
5000	-9.51607
代	-9.5162
传媒	-9.51697
信贷	-9.51735
▁中	-9.51846
各类	-9.51979
河	-9.51979
开放	-9.52008
创业板	-9.52086
天然气	-9.5214
石油	-9.52158
地方	-9.5216
3000	-9.5221
审计	-9.52213
优	-9.52264
/08	-9.52264
提	-9.52273
处置	-9.523
作用	-9.52349
你	-9.5235
▁0.0	-9.52356
套	-9.5259
▁0.0%	-9.52602
确保	-9.52694
2.5	-9.52732
相应	-9.52919
涨跌幅	-9.52921
佳	-9.53016
千	-9.53077
石	-9.53177
现场	-9.53212
一季度	-9.53233
▁500	-9.53263
轮	-9.53305
非常	-9.53481
营业部	-9.53525
宇	-9.53609
分类	-9.53632
的重要	-9.53717
现在	-9.53728
三大	-9.53763
版	-9.53771
主动	-9.53849
截止	-9.53882
推	-9.53911
货币政策	-9.54166
到期	-9.54273
完整	-9.54282
经过	-9.54293
华为	-9.54482
流	-9.54487
-08	-9.54488
0000	-9.54489
1.	-9.54533
宏	-9.54537
环	-9.54574
每年	-9.54617
院	-9.54624
一体化	-9.54638
英	-9.54638
稳健	-9.54728
港口	-9.54752
峰	-9.54774
天津	-9.54813
程度	-9.54819
将在	-9.54998
0.5	-9.5504
走	-9.55048
研究报告	-9.55095
计算机	-9.55208
上游	-9.55251
进展	-9.55274
监事会	-9.55307
▁49	-9.55324
出售	-9.55419
▁EPS	-9.55459
助力	-9.55459
另外	-9.5546
资	-9.55467
鑫	-9.55478
老	-9.55478
决策	-9.5558
标	-9.55582
同期	-9.55723
整理	-9.55762
注	-9.55769
水泥	-9.55814
货	-9.5613
▁王	-9.56152
机器人	-9.56196
PMI	-9.56269
□	-9.56282
白	-9.56318
借款	-9.56338
落实	-9.56404
维	-9.56695
总经理	-9.56768
1:	-9.56786
最大	-9.56821
l	-9.56827
制定	-9.56928
存	-9.57019
▁执业证书编号	-9.57065
▁70	-9.57119
企	-9.57139
>	-9.5714
▁5%	-9.57146
英国	-9.57179
最低	-9.57238
环节	-9.57251
下半年	-9.57288
的发展	-9.57301
金融机构	-9.5748
▁46	-9.57524
结算	-9.57644
信托	-9.57767
账户	-9.57778
酒店	-9.578
选	-9.57832
CPI	-9.57892
另一方面	-9.57894
▁47	-9.57917
http	-9.57951
种	-9.58064
损失	-9.58187
大盘	-9.58188
▁五	-9.58192
从而	-9.58248
相关的	-9.58276
▁张	-9.58333
▁http	-9.58391
利益	-9.58396
书	-9.58401
应收账款	-9.5842
通胀	-9.58464
委托	-9.5854
(+	-9.58564
▁金	-9.58656
并购	-9.5872
总额	-9.58787
GDP	-9.58835
移动	-9.58913
OC	-9.5895
间	-9.58997
▁48	-9.58999
的情形	-9.59041
▁本公司	-9.59137
000	-9.59258
而言	-9.59372
▁100%	-9.59446
股东大会	-9.59489
▁in	-9.59603
杭州	-9.59686
还有	-9.59697
基差	-9.59762
凯	-9.59835
排名	-9.59845
不过	-9.59889
打	-9.5995
面临	-9.59962
库	-9.60021
产品的	-9.60119
▁%	-9.60135
快	-9.6016
良好	-9.60273
J	-9.60274
及其他	-9.60336
换手率	-9.6051
利好	-9.60718
伟	-9.60901
面积	-9.60901
家电	-9.60965
本期	-9.60967
原料	-9.60976
都是	-9.61003
公司将	-9.6101
调	-9.61027
信息披露	-9.61086
药品	-9.61119
预	-9.61119
1.2	-9.61188
出台	-9.61239
基建	-9.61516
中期	-9.61521
将会	-9.61532
大学	-9.61537
-02	-9.61542
▁41	-9.61726
-6	-9.61802
带来的	-9.61829
▁上周	-9.61949
村	-9.61968
代理	-9.62175
农	-9.62254
期权	-9.62441
重庆	-9.62527
制作	-9.62562
作出	-9.62668
▁证券代码	-9.62929
来自	-9.62974
签订	-9.62978
领域的	-9.63008
少	-9.63016
铁	-9.63017
有利于	-9.63029
格	-9.63186
科技有限公司	-9.63317
绿色	-9.63427
楼	-9.63505
视频	-9.63663
难	-9.63672
投产	-9.63688
个百分点	-9.63692
决议	-9.63745
造成	-9.63901
原材料	-9.64027
甚至	-9.64092
偏	-9.6415
赛	-9.6416
装	-9.64174
逻辑	-9.64185
▁2025	-9.64283
上调	-9.64344
▁(4)	-9.64376
消息	-9.64447
聚焦	-9.64765
培训	-9.64854
接近	-9.64867
接受	-9.64867
-06	-9.64897
爱	-9.64968
专项	-9.64979
航	-9.65049
竞争	-9.65114
奥	-9.65137
..............	-9.65178
理财	-9.65334
▁至	-9.65345
存货	-9.65388
完全	-9.65388
共计	-9.65411
审核	-9.65436
中国证监会	-9.65475
加息	-9.65499
指出	-9.65533
/06	-9.65544
关联交易	-9.65638
▁证券简称	-9.65652
1.1	-9.6567
120	-9.65808
进度	-9.65849
稳	-9.65871
调查	-9.65912
-21	-9.65932
结束	-9.65942
个月内	-9.65989
经验	-9.66003
同比增加	-9.66114
镇	-9.66124
基地	-9.66128
获取	-9.66137
坚持	-9.6627
”、“	-9.66277
高位	-9.66368
必须	-9.66514
过去	-9.66543
华东	-9.6656
申购	-9.66595
罗	-9.66596
精	-9.66601
概念	-9.66607
的方式	-9.66689
行业的	-9.66709
审批	-9.67106
xyzq	-9.67134
放缓	-9.67138
-8	-9.67159
▁+	-9.67165
出资	-9.67226
重组	-9.6726
均为	-9.67353
等方面	-9.67402
财政	-9.67415
钱	-9.6743
▁•	-9.6753
合并	-9.67542
春	-9.6762
宏观	-9.67656
宁	-9.67656
Jul	-9.67684
正常	-9.67694
▁期末余额	-9.67696
er	-9.67773
市场规模	-9.67783
深圳证券交易所	-9.67819
效果	-9.67873
申报	-9.68022
标的公司	-9.68104
担任	-9.68124
该公司	-9.68142
收盘价	-9.68149
他们	-9.68158
较低	-9.68198
最近	-9.68328
当日	-9.68353
格局	-9.68432
点评	-9.68503
两个	-9.68589
余	-9.68795
港股	-9.68796
700	-9.68937
主流	-9.68965
反映	-9.6898
审议通过了	-9.69072
来说	-9.69125
回暖	-9.69129
▁603	-9.69161
我们预计	-9.69163
的需求	-9.69204
后的	-9.69264
智能化	-9.69313
发表	-9.69331
放	-9.69365
大量	-9.69376
▁N	-9.6938
疫苗	-9.69431
/04	-9.69479
/03	-9.69538
建议关注	-9.69569
1.00	-9.69575
风电	-9.69646
杨	-9.69655
税	-9.69657
包	-9.69728
市场份额	-9.69837
日报	-9.69852
k	-9.69886
r	-9.69969
hc	-9.6997
定位	-9.70029
客	-9.70047
1.3	-9.70051
流量	-9.70055
围绕	-9.70058
一年	-9.70134
中央	-9.70209
-03	-9.70251
▁to	-9.70298
页	-9.70359
900	-9.70428
公司法	-9.70627
节	-9.70644
段	-9.70661
yjs	-9.7071
纳入	-9.70772
桶	-9.70796
监测	-9.70801
试点	-9.70842
存量	-9.70848
3.5	-9.7105
施工	-9.71193
普遍	-9.71197
I	-9.7121
的主要	-9.71278
难以	-9.71297
欧	-9.7137
▁李	-9.71413
户	-9.71426
取	-9.71508
这是	-9.7152
受益于	-9.71609
性能	-9.71612
场景	-9.71634
开工	-9.71707
基础设施	-9.71707
net	-9.71744
▁减持	-9.71766
了解	-9.71804
最大的	-9.71857
线下	-9.71902
集团股份有限公司	-9.72078
关	-9.72094
▁AAA	-9.72133
委员会	-9.72181
--	-9.72192
深度	-9.72222
ing	-9.72252
速度	-9.72269
谨慎	-9.72313
视	-9.72329
提前	-9.72341
1.4	-9.72422
船	-9.72433
形式	-9.72443
CLSA	-9.7248
资讯	-9.72489
剂	-9.72511
▁1,4	-9.72635
半	-9.72753
动态	-9.72789
的通知	-9.72888
零	-9.72938
质押	-9.72981
总量	-9.73238
证监会	-9.73311
▁期	-9.7334
资本市场	-9.73348
青	-9.73383
大豆	-9.73395
讯	-9.73472
益	-9.7351
调研	-9.73526
这种	-9.73549
一方面	-9.73587
外资	-9.73601
介绍	-9.73612
汇率	-9.73613
主营业务	-9.73636
布	-9.7364
荣	-9.73714
现有	-9.73718
想	-9.7373
德国	-9.73808
近年来	-9.73812
计提	-9.73866
境外	-9.73867
网站	-9.73867
车型	-9.73922
成交额	-9.74054
只有	-9.74183
补充	-9.7421
鼓励	-9.74284
游	-9.74334
重新	-9.74529
胜	-9.74543
存款	-9.746
战	-9.74632
2:	-9.74715
思	-9.74727
f	-9.74748
略	-9.74785
p	-9.74872
IC	-9.74925
改	-9.74951
腾讯	-9.74981
利息	-9.74987
250	-9.75008
销	-9.75041
可能会	-9.7512
年底	-9.75177
南京	-9.7524
的是	-9.75325
均值	-9.75393
h	-9.75405
的要求	-9.7556
依法	-9.75632
现金流	-9.75673
体验	-9.75704
数字化	-9.75821
冲击	-9.75824
0.00%	-9.75967
招标	-9.75971
治理	-9.75974
收盘	-9.75982
U	-9.76011
国债	-9.76042
持平	-9.7608
年内	-9.76217
整个	-9.76373
房企	-9.76375
考虑到	-9.76402
涨停	-9.76496
日至	-9.76497
观察	-9.76516
深圳市	-9.76609
流通	-9.76631
迎来	-9.76695
态势	-9.76775
供需	-9.76797
维护	-9.76803
收到	-9.76808
市盈率	-9.76812
▁2010	-9.76816
开工率	-9.76823
吉	-9.76907
住宅	-9.76929
压	-9.76937
/05	-9.7694
1.6	-9.76961
▁55	-9.76966
反对	-9.7698
建材	-9.77047
旗下	-9.77047
并不	-9.77052
成都	-9.77063
太	-9.7708
章	-9.77108
前值	-9.77296
发挥	-9.7735
领先	-9.77379
就业	-9.77382
:1)	-9.7752
销售收入	-9.7756
志	-9.77574
三季度	-9.77575
而且	-9.776
ed	-9.77659
2.	-9.77676
一次	-9.77877
的企业	-9.77903
融	-9.77914
待	-9.78055
物联网	-9.78115
一直	-9.78149
▁M	-9.7821
草案	-9.78313
做好	-9.78409
的股权	-9.7846
军工	-9.78469
▁150	-9.78497
2007	-9.78686
那么	-9.78691
▁H	-9.78822
3.	-9.78876
储能	-9.789
中标	-9.78918
质	-9.78978
▁推荐	-9.78995
▁30%	-9.79006
人数	-9.79093
改造	-9.79125
意	-9.79125
0.2	-9.79167
配	-9.79382
它	-9.79384
放量	-9.79462
-04	-9.79476
mm	-9.79496
2.0	-9.7955
印度	-9.79555
▁评级	-9.79563
希望	-9.79577
高效	-9.79699
交付	-9.7975
多个	-9.79784
▁本报告	-9.79808
新闻	-9.79821
品类	-9.79825
世	-9.79891
新型	-9.79957
固定资产	-9.79978
供	-9.79996
牛	-9.80056
办	-9.80071
行业周报	-9.80083
石化	-9.80112
专家	-9.80262
短	-9.80301
创业	-9.80327
季度	-9.80329
增资	-9.80335
仍有	-9.8037
▁-6	-9.80475
尤其是	-9.80662
层面	-9.80727
80%	-9.8074
管理办法	-9.80848
原则	-9.80863
公司董事会	-9.80912
▁年的	-9.8092
同样	-9.80966
0.0	-9.80984
大厦	-9.81075
‐	-9.81124
关于公司	-9.81125
极	-9.81292
分发	-9.81407
油价	-9.81484
反	-9.81587
惠	-9.81645
二季度	-9.81663
家庭	-9.81698
投放	-9.81799
治疗	-9.81823
强调	-9.81876
解	-9.8198
▁53	-9.82065
粉	-9.82095
门店	-9.82117
效应	-9.82126
致	-9.82128
▁地址	-9.82152
季	-9.82165
研究所	-9.82165
除了	-9.82214
▁100.00	-9.82283
迅速	-9.82364
贷	-9.82463
6000	-9.82542
•	-9.82547
才	-9.82555
为公司	-9.82564
企业的	-9.82571
融合	-9.82638
1.8	-9.8269
苹果	-9.82769
编制	-9.82887
II	-9.82894
却	-9.82936
园	-9.83036
杰	-9.83041
an	-9.83072
▁40%	-9.83085
核	-9.83118
研究院	-9.83152
丽	-9.83218
中性	-9.8325
▁T	-9.83375
川	-9.83472
座	-9.83474
普通	-9.83484
额度	-9.83547
义务	-9.83577
昨日	-9.83585
弃权	-9.83637
在不同时期	-9.83742
电话	-9.83744
众	-9.83759
接	-9.83866
终止	-9.83932
交易所	-9.8394
严重	-9.83982
令	-9.84035
许可	-9.84052
润	-9.84078
评价	-9.84116
u	-9.84135
▁—	-9.84149
派	-9.84208
0.0%	-9.84258
公司与	-9.84285
员	-9.84364
各项	-9.84371
▁15%	-9.84399
过程	-9.84403
卖	-9.84413
协同	-9.84463
探索	-9.84483
所致	-9.84501
投资收益	-9.84522
▁54	-9.84543
四川	-9.84568
▁只	-9.84673
车辆	-9.84676
室	-9.84679
雷	-9.84711
胶	-9.84852
底	-9.84891
聚	-9.849
研	-9.84946
兰	-9.84973
人口	-9.85022
湖	-9.85079
京	-9.85126
▁5、	-9.85129
▁业	-9.8513
计	-9.852
也将	-9.85203
同比上升	-9.85213
业务的	-9.85331
结	-9.85361
信号	-9.8537
;2)	-9.85389
月度	-9.85493
隆	-9.85595
物业	-9.85719
70%	-9.8573
神	-9.85985
武汉	-9.86012
▁年以来	-9.86018
强势	-9.86165
180	-9.86277
流程	-9.86292
近日	-9.86324
▁51	-9.86329
购	-9.86357
发力	-9.86375
自主	-9.8642
简称	-9.86449
将于	-9.86531
经销商	-9.86554
百万	-9.86589
小幅	-9.866
附近	-9.86618
晶	-9.86659
汉	-9.86781
▁财务费用	-9.86802
AAA	-9.86802
储备	-9.86802
自动化	-9.86844
直	-9.86852
回报	-9.869
PB	-9.86907
美股	-9.86929
▁金额	-9.86979
自己	-9.8698
分红	-9.86987
再度	-9.87007
很多	-9.87045
议案	-9.87068
-5%	-9.87093
后期	-9.87275
激励对象	-9.8729
宏观经济	-9.8737
森	-9.87416
设	-9.87434
科学	-9.87459
分布	-9.8751
数据来源	-9.87576
宽松	-9.87593
-22	-9.87597
▁年公司	-9.87611
改变	-9.8765
0.6	-9.87674
▁联系人	-9.87698
田	-9.87741
承压	-9.87769
引导	-9.87794
条款	-9.87804
▁90	-9.87878
不是	-9.87897
<	-9.87953
0.3	-9.87983
中长期	-9.88004
监督	-9.88004
东方	-9.88013
很	-9.88033
俄罗斯	-9.88044
低位	-9.88104
日内	-9.88255
不变	-9.88258
▁行业周报	-9.88261
期末	-9.88301
港元	-9.88315
尽管	-9.8851
GW	-9.88514
▁56	-9.88543
专利	-9.88552
财	-9.88589
中信	-9.88601
0.1	-9.88722
否	-9.88871
社区	-9.88985
分行	-9.88998
1.0	-9.88998
▁沪深	-9.89018
在线	-9.89046
药业	-9.89129
生产线	-9.89189
优先	-9.89275
右	-9.89283
2.2	-9.89286
特别	-9.8931
字	-9.8934
全资子公司	-9.89361
一致	-9.89424
▁减	-9.89471
表明	-9.89478
景	-9.895
z	-9.8952
或将	-9.8952
碳	-9.89524
环比下降	-9.89531
辉	-9.89552
蓝	-9.89561
甲醇	-9.89622
毛利	-9.89627
膜	-9.89663
帮助	-9.89827
理	-9.89841
▁5.	-9.89869
第三方	-9.89905
0.4	-9.89949
新材料	-9.90012
×	-9.90069
尚	-9.90096
发布的	-9.90109
交流	-9.9012
国外	-9.90153
干	-9.90181
突出	-9.90279
开启	-9.90292
巴	-9.90321
情	-9.90422
▁同比	-9.90529
案	-9.90541
早	-9.90571
管理层	-9.90572
居	-9.90592
2025	-9.90636
高达	-9.90743
诚	-9.90744
京东	-9.90854
出席	-9.90863
糖	-9.90884
平稳	-9.91029
包装	-9.91035
新疆	-9.91052
交易对方	-9.91087
▁58	-9.91165
做出	-9.91217
当地	-9.91271
红利	-9.91344
展望	-9.91362
一线	-9.91385
顺	-9.91408
广发证券发展研究中心	-9.91421
LME	-9.9146
节能	-9.91509
▁原标题	-9.91512
3.2	-9.91634
▁57	-9.91667
买卖	-9.9173
▁1.2	-9.91744
赎回	-9.91749
-7	-9.91765
▁六	-9.91843
持	-9.92009
特斯拉	-9.92078
病	-9.92086
越	-9.92157
混合	-9.9219
差异	-9.92201
鼎	-9.92229
之日起	-9.92231
个交易日	-9.92274
中信建投	-9.92327
资料来源	-9.9233
感	-9.92352
抗	-9.92381
链	-9.92391
▁此外	-9.92457
▁年度	-9.92465
IP	-9.92469
卖出	-9.92513
任务	-9.92597
本公司不	-9.92614
市占率	-9.92617
今天	-9.92624
▁100.00%	-9.92625
纳	-9.92626
电气	-9.92648
情绪	-9.92731
特征	-9.92823
增幅	-9.92923
镍	-9.92937
关联方	-9.92962
分配	-9.93042
缓解	-9.93092
利差	-9.93096
约定	-9.93123
高速	-9.93154
行动	-9.93197
4.5	-9.93198
’	-9.93254
须	-9.93262
明年	-9.93346
备案	-9.93347
风格	-9.93347
上证	-9.93396
信息化	-9.93414
分公司	-9.93429
资格	-9.9346
有限合伙	-9.9349
▁营业利润	-9.93544
换	-9.93581
审议通过	-9.93627
纸	-9.93659
▁邮箱	-9.93669
o	-9.93683
跨	-9.93711
财政部	-9.93714
身	-9.93782
1%	-9.93791
牌	-9.93839
韩国	-9.94029
制药	-9.94096
▁报告期内	-9.9412
▁万辆	-9.94147
PTA	-9.94183
▁601	-9.94253
IPO	-9.94297
包含	-9.94326
是指	-9.9445
展	-9.945
▁未来	-9.94602
药物	-9.94619
回调	-9.94704
净流入	-9.94903
分化	-9.94908
认证	-9.94928
财务报表	-9.94943
陆续	-9.9501
+1	-9.95042
▁59	-9.95058
白酒	-9.95084
同比减少	-9.95107
▁2000	-9.95192
目标价	-9.95308
规则	-9.95325
持有的	-9.95327
有色金属	-9.95346
如有	-9.95347
防	-9.95352
$	-9.95376
日起	-9.95387
的同时	-9.954
年的	-9.95404
出货	-9.9541
[	-9.95414
40%	-9.95447
奇	-9.95455
0.8	-9.95467
的产品	-9.9547
实现营业收入	-9.95474
不低于	-9.95497
丰富	-9.95522
临	-9.95522
火	-9.95552
)》	-9.95567
设施	-9.95662
▁65	-9.95725
渗透率	-9.9573
邦	-9.95751
一定	-9.95837
▁400	-9.95868
弱	-9.95938
迪	-9.96003
支	-9.9623
3%	-9.96249
传	-9.96285
四季度	-9.963
共有	-9.96305
降幅	-9.96327
▁陈	-9.96358
限	-9.96382
苏	-9.9639
向上	-9.96398
新材	-9.96431
替代	-9.96507
净资产	-9.96546
▁关于	-9.96572
“-”	-9.96576
实现了	-9.96592
电影	-9.9668
程	-9.96716
组件	-9.96729
不再	-9.96752
科创板	-9.9676
农村	-9.96797
运作	-9.96858
复	-9.96933
较多	-9.96967
基准	-9.97021
大部分	-9.97024
法规	-9.97029
发电	-9.97156
修订	-9.97171
2.3	-9.97177
110	-9.97181
验证	-9.97225
松	-9.97281
▁合约	-9.97284
成熟	-9.97318
零部件	-9.97475
90%	-9.97513
利润率	-9.97582
培育	-9.97684
园区	-9.97721
▁1.1	-9.97732
随	-9.97826
群	-9.97911
该等	-9.97978
风险提示	-9.97992
依旧	-9.98004
EBITDA	-9.98015
泽	-9.98028
理财产品	-9.98077
j	-9.98083
准备	-9.98092
呈	-9.98202
芯	-9.98288
2.4	-9.98291
PPP	-9.98364
统一	-9.98418
投票	-9.9842
奖	-9.98422
▁资讯	-9.98463
鸿	-9.98543
特别是	-9.98681
运用	-9.98688
1.7	-9.98689
第四	-9.9869
落	-9.98727
大家	-9.98727
▁1000	-9.9879
0.9	-9.98836
▁新	-9.98846
容	-9.98944
餐饮	-9.99025
色	-9.99032
并在	-9.99081
真	-9.99136
部署	-9.99149
0001	-9.99179
为了	-9.99182
回收	-9.99201
比重	-9.99327
盈	-9.9939
▁刘	-9.99435
▁共	-9.99565
宁波	-9.99576
▁年期	-9.99582
现货价格	-9.99584
诺	-9.99607
具	-9.99625
▁特别声明	-9.99646
指引	-9.99698
母公司	-9.99705
▁50%	-9.99836
回归	-9.99878
政	-9.99898
4.0	-9.99903
较好	-9.99906
降至	-9.9991
商业银行	-9.99926
常	-9.99975
2006	-9.99995
3.3	-10
底部	-10.0004
新股	-10.0004
补	-10.0006
主力合约	-10.0011
鹏	-10.0014
真实	-10.0014
万辆	-10.0016
仍在	-10.0018
香	-10.0019
最后	-10.0022
豆粕	-10.0025
Apr	-10.0026
007	-10.0027
净值	-10.0032
不仅	-10.0032
3.0	-10.0033
刺激	-10.004
欧盟	-10.0044
Mar	-10.0045
▁期初余额	-10.0051
增长率	-10.0059
活跃	-10.0062
等领域	-10.007
▁F	-10.0075
1.5%	-10.008
竞争力	-10.0084
▁季度	-10.009
年初	-10.0102
锌	-10.0102
破	-10.0103
阿	-10.0105
▁序号	-10.0107
Sep	-10.0109
依托	-10.0111
▁(1	-10.0111
机场	-10.0116
化学	-10.0123
▁投资建议	-10.0127
公斤	-10.0133
2.8	-10.0142
2%	-10.0146
:“	-10.0152
1.9	-10.0156
▁目前	-10.016
资质	-10.0161
750	-10.0161
国内外	-10.0162
集成	-10.0166
退出	-10.0169
▁64	-10.0172
各种	-10.0175
爆发	-10.0177
把握	-10.0181
引用	-10.0183
节奏	-10.0192
会计师事务所	-10.0195
3.6	-10.0199
募投项目	-10.0206
-23	-10.0207
铁矿石	-10.0213
的问题	-10.0216
亚洲	-10.0225
扣除	-10.0227
▁本期	-10.023
日前	-10.023
▁名	-10.0235
预算	-10.0235
棉花	-10.0239
昌	-10.0243
▁预计	-10.0248
新加坡	-10.0252
运营商	-10.0254
▁本次	-10.0266
的原因	-10.0276
刚	-10.0277
未能	-10.0281
3.1	-10.0283
当期	-10.0289
比如	-10.029
临床	-10.0294
核准	-10.0298
报道	-10.0308
苏州	-10.0314
沟通	-10.0323
注册资本	-10.0328
光电	-10.0329
协会	-10.033
士	-10.033
May	-10.033
服	-10.0338
3.4	-10.0341
深化	-10.0344
予以	-10.0354
▁行业研究	-10.0354
投资有限公司	-10.0356
社	-10.0356
样本	-10.0357
▁公告编号	-10.037
吴	-10.0372
▁分别为	-10.0375
收窄	-10.0376
参加	-10.0382
上的	-10.0389
桥	-10.039
打开	-10.0391
2.1	-10.0393
球	-10.0397
的基础上	-10.0397
多家	-10.0399
外部	-10.04
城投	-10.0409
含税	-10.041
1-3	-10.0413
▁1.5	-10.043
弹性	-10.043
体育	-10.0437
2005	-10.0454
用途	-10.0465
招	-10.0466
▁2.2	-10.0466
融资余额	-10.0467
湖南	-10.0468
核查	-10.0473
考核	-10.0475
乘用车	-10.0477
农产品	-10.0482
公正	-10.0487
▁120	-10.0494
拖累	-10.0494
控股子公司	-10.0494
实行	-10.0503
职务	-10.051
於	-10.051
市场需求	-10.0518
TTM	-10.0519
巴西	-10.052
盈利预测	-10.0524
的价格	-10.0525
云计算	-10.0526
燃气	-10.0527
仅为	-10.053
人士	-10.0534
师	-10.0537
步	-10.0543
食品饮料	-10.0543
提振	-10.0545
累计同比	-10.0547
為	-10.055
剩余	-10.0552
自动	-10.0553
安徽	-10.0555
行政	-10.0556
▁0.5	-10.0558
类别	-10.0564
续	-10.0572
▁3000	-10.0572
望	-10.0574
Oct	-10.0575
剔除	-10.0581
学习	-10.0586
可转债	-10.0594
▁63	-10.0596
三个	-10.0601
预期未来	-10.0602
息	-10.0606
山西	-10.0612
▁-7	-10.0612
授予	-10.0617
会员	-10.062
仓位	-10.0623
深入	-10.0627
周度	-10.0628
的比例	-10.063
转移	-10.0638
▁66	-10.064
贵	-10.0642
公共	-10.0649
玉	-10.0653
引领	-10.0656
三年	-10.066
估计	-10.0662
投资咨询业务资格	-10.0662
国务院	-10.0662
资产管理	-10.0665
应该	-10.0667
整	-10.0667
快速增长	-10.067
取消	-10.0673
洋	-10.0678
满	-10.0685
相应的	-10.0688
会计	-10.0688
潜力	-10.0692
顺利	-10.0695
住房	-10.0695
修改	-10.0695
轻	-10.07
-9	-10.0703
▁ROE	-10.0704
服务业	-10.0706
通道	-10.0719
多数	-10.0723
5,000	-10.0727
2.7	-10.0727
专	-10.0728
2.6	-10.0733
委	-10.0734
自己的	-10.0746
0.7	-10.0748
检查	-10.075
负责人	-10.0751
努力	-10.0753
删节和修改	-10.0756
不含	-10.0766
平衡	-10.0767
▁62	-10.0772
jztzw	-10.0773
溢价	-10.0775
发放	-10.0777
腾	-10.0794
本次发行	-10.0794
实业	-10.0797
in	-10.0802
,000,000	-10.0808
规定的	-10.0811
/14	-10.0813
为准	-10.0813
精准	-10.0813
即将	-10.0814
面向	-10.0816
们	-10.0822
潮	-10.0828
雅	-10.083
4.2	-10.0835
将继续	-10.0837
其它	-10.0839
每股	-10.084
退	-10.0854
table	-10.0855
载	-10.0857
位置	-10.0859
边际	-10.0861
焦炭	-10.0867
国泰君安证券研究	-10.0868
投资需谨慎	-10.0871
空调	-10.0879
拉动	-10.0881
友	-10.0883
收于	-10.0885
▁1.0	-10.0887
晓	-10.089
▁敬请参阅最后一页特别声明	-10.0897
挑战	-10.09
的核心	-10.0903
铅	-10.0909
涨跌	-10.0912
当年	-10.0915
提供了	-10.0916
严格	-10.092
产业发展	-10.0924
净利率	-10.0925
送	-10.0927
主业	-10.0936
出具	-10.0937
河南	-10.0942
al	-10.0943
▁年上半年	-10.0945
洪	-10.0948
继	-10.0948
0.6%	-10.0949
▁2.1	-10.0952
0.5%	-10.0956
的投资	-10.0962
那	-10.0963
一带一路	-10.0965
深交所	-10.0968
效益	-10.0986
▁卖出	-10.0991
▁国内	-10.0992
海通证券研究所	-10.0994
其余	-10.1003
创造	-10.1008
箱	-10.1009
预案	-10.101
各地	-10.1015
▁...	-10.102
对象	-10.1027
现代	-10.1027
海南	-10.1028
绿	-10.1034
向好	-10.1036
女士	-10.1037
热点	-10.1038
新建	-10.1038
指导	-10.1039
1.2%	-10.1041
▁每股收益	-10.1047
详细	-10.1049
开拓	-10.105
记录	-10.1055
未经	-10.106
无形资产	-10.1069
▁68	-10.107
并未	-10.1075
提交	-10.1075
IT	-10.1076
的股份	-10.1082
▁75	-10.1084
证监许可	-10.1084
▁分析师声明	-10.1087
▁行	-10.1087
6-12	-10.1088
同步	-10.1091
君	-10.1103
定增	-10.1107
▁Q	-10.1109
更为	-10.111
冷	-10.1111
swsresearch	-10.1115
特殊	-10.1121
架	-10.1124
软	-10.1131
售	-10.1133
▁对于	-10.1135
代码	-10.1136
锦	-10.1138
境内	-10.1149
成员	-10.1149
表决	-10.1152
▁1.00	-10.1152
排	-10.1155
债市	-10.1161
价格上涨	-10.1163
ROE	-10.1169
▁2.5	-10.1172
没	-10.1178
也在	-10.1181
0.4%	-10.1183
成果	-10.1183
主要系	-10.1185
▁Limited	-10.1187
特色	-10.1197
国企	-10.12
故	-10.1204
持股比例	-10.1208
例	-10.1211
3.8	-10.1227
联系	-10.1238
锡	-10.1251
的有关规定	-10.1253
电机	-10.1255
60%	-10.1256
损益	-10.126
薪酬	-10.1261
的研发	-10.1261
▁1)	-10.1262
▁吨	-10.1265
130	-10.1266
合法	-10.1269
共享	-10.1271
▁说明	-10.1274
影视	-10.1279
▁67	-10.128
▁SAC	-10.1281
▁R	-10.1281
1-2	-10.1282
时期	-10.1284
存储	-10.1285
转向	-10.1291
▁(5)	-10.1292
批	-10.1293
办法	-10.1294
材	-10.1301
金融服务	-10.1308
权利	-10.1317
▁2,3	-10.1318
娱乐	-10.1319
办公	-10.1321
地位	-10.1323
当月	-10.1323
出具的	-10.1324
大会	-10.1328
年报	-10.1329
4.8	-10.1338
发现价值	-10.1342
保荐机构	-10.1344
产生的	-10.1345
至少	-10.1348
财富	-10.1356
应对	-10.136
自然	-10.1362
河北	-10.1366
▁60%	-10.1367
饲料	-10.1373
武	-10.1376
3:	-10.1382
几	-10.1383
将成为	-10.1387
力量	-10.139
一是	-10.139
限制性股票	-10.1392
平方米	-10.1393
医疗器械	-10.1395
知	-10.1403
实力	-10.1409
持仓量	-10.1411
大众	-10.1416
青岛	-10.1419
4.4	-10.1421
降息	-10.1427
出货量	-10.1436
▁69	-10.1439
4.3	-10.1441
1.4%	-10.1441
▁⚫	-10.1447
号填列	-10.1448
采	-10.1453
以上的	-10.1456
签约	-10.1458
101	-10.1459
新三板	-10.1459
大规模	-10.146
▁6000	-10.1461
回顾	-10.1465
基金经理	-10.1466
▁管理费用	-10.1471
橡胶	-10.1471
直播	-10.1472
木	-10.1473
齐	-10.1476
久	-10.1481
安装	-10.1482
量化	-10.1482
一周	-10.1482
1.3%	-10.1484
cninfo	-10.1487
辆	-10.1497
好转	-10.1501
支行	-10.1505
景气	-10.1507
界	-10.151
前景	-10.1513
精密	-10.1521
3.7	-10.1524
市场化	-10.1525
华创证券	-10.1534
体现	-10.1535
举行	-10.1544
二是	-10.1544
欣	-10.1544
1.6%	-10.1554
网上	-10.1558
010	-10.1565
4.1	-10.1568
也有	-10.1569
年产	-10.1569
企稳	-10.1579
0.8%	-10.1583
/15	-10.1587
塔	-10.1592
1.1%	-10.1594
提示	-10.1598
进程	-10.1598
▁EV	-10.1602
百万股	-10.1608
品质	-10.1611
团	-10.1612
IB	-10.1612
流入	-10.1615
选举	-10.1616
家居	-10.1616
4.6	-10.1619
一期	-10.1623
-10%	-10.1623
25%	-10.1626
▁万亿元	-10.1629
面对	-10.1629
的变化	-10.163
血	-10.1632
客观	-10.1637
PPI	-10.1638
短期内	-10.1651
标的资产	-10.1653
归	-10.1656
健	-10.1657
违反	-10.1657
▁我们	-10.1663
以后	-10.1669
▁Securities	-10.167
日均	-10.1677
▁L	-10.1678
架构	-10.1679
▁or	-10.1679
资金面	-10.1682
2.9	-10.1683
至今	-10.1686
+2	-10.1688
负	-10.1688
副总经理	-10.1695
4000	-10.1699
▁2)	-10.17
电源	-10.17
信用债	-10.1704
例如	-10.1706
街	-10.1707
事宜	-10.1718
龙头企业	-10.1724
钢厂	-10.1729
特点	-10.173
谷	-10.173
▁CH	-10.1731
捷	-10.1734
先进	-10.1735
0%	-10.1737
职工	-10.1739
▁加	-10.1741
的增长	-10.1745
▁每股净资产	-10.1749
0.7%	-10.175
6.6	-10.1751
已于	-10.1753
之间的	-10.1753
数据中心	-10.1755
徐	-10.1757
160	-10.1765
PP	-10.1768
然	-10.1772
财经	-10.1772
第五	-10.1777
▁营业成本	-10.1779
绝对	-10.1789
动力电池	-10.1791
反应	-10.1794
350	-10.1795
的相关规定	-10.1797
在于	-10.1798
快递	-10.1798
增值税	-10.1803
公布的	-10.1805
总资产	-10.1806
▁增长率	-10.1812
/16	-10.1816
纯	-10.1817
计入当期损益	-10.1819
高度	-10.1831
同比下滑	-10.1832
低于预期	-10.1835
养殖	-10.1838
引入	-10.1843
激励	-10.1851
▁比例	-10.1851
黑	-10.1854
冠	-10.1857
名单	-10.1861
勇	-10.1865
先后	-10.1866
较小	-10.187
摘要	-10.1871
款项	-10.1871
▁不适用	-10.1872
往	-10.1872
or	-10.1882
审	-10.1886
初	-10.1887
湖北	-10.1887
稀土	-10.1888
8.7	-10.1894
比率	-10.1899
通讯	-10.1904
矿业	-10.1905
完成后	-10.1908
1.7%	-10.1918
份	-10.1918
/17	-10.1918
q	-10.1921
高质量发展	-10.1923
重点关注	-10.1925
影	-10.1926
Bloomberg	-10.1929
义	-10.1934
:(1)	-10.1939
硬件	-10.1942
对外	-10.1943
4:	-10.1951
▁2009	-10.1955
航天	-10.1959
▁72	-10.196
集團	-10.1965
en	-10.1979
特定	-10.1987
▁层	-10.1994
背景下	-10.1994
雪	-10.1995
强劲	-10.1999
140	-10.2003
▁固定资产	-10.2005
配合	-10.2007
钢材	-10.2008
项目的	-10.2008
▁2,2	-10.2012
,2021	-10.2015
属	-10.2017
▁億	-10.2017
的股票	-10.2019
云南	-10.202
市场价格	-10.2024
新产品	-10.2024
手段	-10.2027
停牌	-10.2034
公路	-10.2035
实现归母净利润	-10.2035
初步	-10.2038
运动	-10.2039
赛道	-10.2046
电网	-10.2051
通用	-10.2051
▁预期未来	-10.2055
招商	-10.2056
1-6	-10.2056
检修	-10.2056
电视	-10.2058
诉讼	-10.2064
短线	-10.2064
票据	-10.2067
低迷	-10.2067
巨头	-10.2072
某	-10.2072
360	-10.2074
/22	-10.2074
6.4	-10.2075
总部	-10.208
重大资产重组	-10.2081
合规	-10.2083
的预期	-10.2083
公司于	-10.2085
及相关	-10.2093
,2020	-10.2095
已有	-10.2097
0.50	-10.2098
建设项目	-10.2098
证券时报	-10.2105
官网	-10.2105
▁中信期货研究部	-10.2106
,2022	-10.212
仓	-10.2126
宣传	-10.2126
定义	-10.2133
福建	-10.2134
像	-10.2134
.............	-10.2139
股权激励	-10.2149
▁事件	-10.2156
3.9	-10.2163
焦煤	-10.2173
央企	-10.2178
▁D	-10.2179
▁1.3	-10.218
募集	-10.2183
背景	-10.2185
法律声明	-10.2195
百度	-10.2197
▁短期借款	-10.2203
避免	-10.2208
塑料	-10.2209
或其他	-10.221
良好的	-10.2214
领	-10.2215
属性	-10.2218
▁级	-10.2218
一家	-10.2221
下游需求	-10.2221
潜在	-10.2223
同比增	-10.2227
加上	-10.2228
的背景下	-10.223
ar	-10.2236
▁万股	-10.2237
▁存货	-10.2239
8.9	-10.2255
5.5	-10.2256
每日	-10.2259
养老	-10.2259
▁国	-10.2261
广西	-10.2264
发展的	-10.2268
7.2	-10.2269
公允价值	-10.2272
更高	-10.2281
期内	-10.2283
▁资产负债率	-10.2289
▁深圳	-10.2292
APP	-10.2293
两大	-10.2294
公司董事	-10.23
讨论	-10.2305
》《	-10.2307
测	-10.2308
2001	-10.2311
▁年底	-10.2312
速	-10.2316
免	-10.2317
景气度	-10.2318
困难	-10.2321
果	-10.2323
净利	-10.2324
1.9%	-10.2324
9.7	-10.2325
出行	-10.2325
土	-10.2327
总计	-10.2327
大涨	-10.2329
对此	-10.2331
成交金额	-10.2333
暂停	-10.2336
市场表现	-10.2338
0.9%	-10.2342
完整性	-10.2347
毛	-10.2351
天风证券研究所	-10.2352
豆油	-10.2357
9.6	-10.2357
商务	-10.2358
8.3%	-10.2358
付	-10.2361
较上周	-10.237
公司股票	-10.2373
▁Ltd	-10.2374
非公开发行	-10.2375
▁#	-10.2377
实体	-10.2377
▁2,4	-10.2378
卫	-10.2381
行政法规	-10.2382
4.7	-10.2385
csc	-10.2387
董事会秘书	-10.2387
长江	-10.2388
▁61	-10.239
▁25%	-10.2391
业务收入	-10.2393
▁2,5	-10.2402
托管	-10.2406
▁(%)	-10.2407
主要为	-10.2408
机遇	-10.2409
注意	-10.241
YoY	-10.2415
▁代码	-10.2415
▁总市值	-10.2416
建成	-10.2421
祥	-10.2427
庆	-10.2429
/13	-10.243
▁2.3	-10.243
▁浙江	-10.2435
基金管理人	-10.2444
仅供参考	-10.2446
巨	-10.2448
我们的	-10.2452
总裁	-10.2453
拐点	-10.2454
LED	-10.2456
形势	-10.2476
小米	-10.248
杠杆	-10.2484
阶段性	-10.2484
▁◆	-10.2485
重视	-10.2487
净额	-10.2489
2.3%	-10.2495
活	-10.2495
cindasc	-10.2497
▁a	-10.2498
民生	-10.2501
交割	-10.2503
本次股东大会	-10.2505
函	-10.2505
st	-10.2509
刊登	-10.2511
基金管理有限公司	-10.2512
5.2	-10.2513
更大	-10.2515
3.0%	-10.2518
思路	-10.2521
价格走势	-10.2523
情形	-10.2523
投资建议	-10.2523
性质	-10.2525
核电	-10.253
在中国	-10.2537
发出	-10.2537
▁0.8	-10.2539
才能	-10.2542
新品	-10.2543
上线	-10.2549
是一个	-10.2555
季节性	-10.2561
档	-10.2562
公司拟	-10.2563
中信证券研究部	-10.2565
申万宏源研究	-10.2566
亮	-10.2568
2.2%	-10.2571
▁江苏	-10.2572
MW	-10.2582
锂电池	-10.2584
财务费用	-10.2592
▁-10	-10.2592
意味着	-10.2594
也会	-10.2597
酸	-10.2598
声	-10.2605
▁大	-10.2607
房屋	-10.2614
▁今日	-10.2616
▁识别风险	-10.2616
2%,	-10.2616
7.9%	-10.2617
发布了	-10.2618
盐	-10.2619
周五	-10.2624
互动	-10.2624
涨价	-10.2629
进出口	-10.2634
传播	-10.2638
岛	-10.2641
结论	-10.2641
经济增长	-10.2643
各方	-10.2646
105	-10.2653
跟	-10.2655
:2019	-10.2659
不确定性	-10.2661
锂	-10.2664
评	-10.2666
▁2%	-10.267
计量	-10.2675
▁传真	-10.2678
莱	-10.269
2.6%	-10.269
计入	-10.2693
该项目	-10.2695
高管	-10.2697
减产	-10.2702
▁Page	-10.2708
6.9	-10.2709
1.8%	-10.2711
2.1%	-10.2712
/21	-10.2723
8.1%	-10.2725
3.5%	-10.2727
指定	-10.2728
岁	-10.273
厂家	-10.273
关联	-10.2731
▁2,6	-10.2736
沙	-10.2738
率先	-10.2738
赵	-10.2739
固定	-10.2747
敏	-10.2753
▁W	-10.2753
▁长期借款	-10.2754
总结	-10.2758
不可	-10.2759
4.9	-10.2761
兴业证券经济与金融研究院整理	-10.2764
4.	-10.2769
比亚迪	-10.277
两市	-10.2772
盘面	-10.2777
偿还	-10.2778
达成	-10.2781
2.4%	-10.2782
5.8	-10.2786
乐观	-10.2788
债权	-10.2789
官方	-10.2789
硅	-10.2791
证书	-10.2794
170	-10.2795
只是	-10.2798
走弱	-10.2799
大股东	-10.2805
国信证券经济研究所整理	-10.2808
监控	-10.2811
▁-8	-10.2812
有色	-10.2812
古	-10.2814
精神	-10.2818
房产	-10.2819
连接	-10.282
患者	-10.2824
道路	-10.2828
为基础	-10.2831
依赖	-10.2832
金融资产	-10.2832
头部	-10.2835
春节	-10.2836
叶	-10.2838
暂时	-10.2839
承	-10.2844
▁请务必阅读末页的免责声明	-10.2847
通常	-10.2848
,2019	-10.285
证明	-10.2851
阅读正文之后的信息披露和法律声明	-10.2856
7.4	-10.2861
▁特此公告	-10.2865
意愿	-10.2868
服装	-10.2869
微信	-10.2873
9.6%	-10.2874
Nov	-10.2877
查	-10.2878
650	-10.2878
显	-10.2878
▁3.2	-10.2881
作者	-10.2884
试验	-10.2887
▁688	-10.289
鱼	-10.2892
重要的	-10.2894
缺乏	-10.29
业绩预告	-10.2902
本报告中的信息或所表述的意见	-10.2906
引	-10.2906
一级	-10.2906
▁e	-10.2909
较强	-10.291
▁资	-10.2912
1)	-10.2916
5.4	-10.2916
▁74	-10.2923
年以来	-10.2924
▁85	-10.2924
9.2%	-10.2929
效	-10.2934
的时候	-10.2941
随后	-10.2942
形	-10.2943
▁3.1	-10.2944
9.4%	-10.2945
停	-10.2951
陆	-10.2957
上限	-10.2958
MA	-10.2961
▁73	-10.2961
周四	-10.2964
0.1%	-10.2966
▁2.0	-10.2969
紧张	-10.2972
月底	-10.2975
上海证券交易所	-10.2975
棉	-10.2976
有权	-10.2981
的时间	-10.2981
消	-10.2983
沪	-10.2991
2.5%	-10.2993
0.2%	-10.2994
gtjas	-10.2999
-25	-10.2999
班	-10.3002
引进	-10.3007
生猪	-10.3012
水电	-10.3018
5.3	-10.302
硬	-10.3022
治	-10.3023
阅读	-10.3024
Dec	-10.3025
广东省	-10.3027
年期	-10.3027
0.3%	-10.3029
池	-10.3035
住	-10.3036
研发投入	-10.304
厦门	-10.3042
▁01	-10.3044
末	-10.3044
万科	-10.3054
同一	-10.3054
量产	-10.3054
1500	-10.3059
观	-10.3062
▁0.6	-10.307
li	-10.3071
变革	-10.3076
审查	-10.3078
目	-10.308
丹	-10.3081
▁相对同期相关证券市场代表性指数	-10.3084
除外	-10.3085
务	-10.309
▁1.4	-10.3095
便	-10.3096
7.3	-10.3099
职	-10.3103
111	-10.3115
7.7	-10.3118
定期	-10.3118
等因素	-10.3118
公平	-10.3125
挂牌	-10.3126
▁利润总额	-10.3128
5.6	-10.313
折	-10.3131
▁76	-10.3132
鲁	-10.3136
年上半年	-10.3136
▁2,7	-10.3137
较高的	-10.3139
9.8%	-10.3141
7.1	-10.3141
▁收盘价	-10.3144
准	-10.315
▁最新	-10.3155
也不	-10.3156
液	-10.3159
去年同期	-10.3159
8.8	-10.3161
▁随着	-10.3163
分享	-10.3168
投资银行	-10.3168
'	-10.3172
误导性陈述或重大遗漏	-10.3172
6.0	-10.3175
南方	-10.3176
保证金	-10.3179
到了	-10.3179
对接	-10.3185
▁其他说明	-10.3186
置	-10.3188
领导	-10.319
占据	-10.3196
中小企业	-10.3197
9.3%	-10.3202
环比增长	-10.3203
圈	-10.3206
▁83	-10.3206
修	-10.3209
卫星	-10.321
一批	-10.3213
晨	-10.3215
9.7%	-10.3215
3.00	-10.3222
▁1,000	-10.3222
浩	-10.3222
▁表决结果	-10.3226
险	-10.3228
船舶	-10.3231
权重	-10.3231
恩	-10.3235
指數	-10.3238
中信证券	-10.324
IF	-10.3243
主导	-10.3243
党	-10.3244
旺季	-10.3244
公司业绩	-10.3251
▁PB	-10.3252
必	-10.3254
新高	-10.3258
9.1%	-10.3259
18.	-10.3266
▁78	-10.3273
雨	-10.3275
报告期	-10.3278
房价	-10.3282
▁for	-10.3283
现任	-10.3284
5.0	-10.3284
涛	-10.3287
VR	-10.3297
转换	-10.3303
管控	-10.3305
西安	-10.3306
每个	-10.331
公司控股股东	-10.3315
9.9	-10.3315
;3)	-10.3315
实现营收	-10.3318
丁	-10.332
成立于	-10.3327
▁0.01	-10.3327
▁无形资产	-10.333
前三季度	-10.3339
素	-10.3339
出现了	-10.3339
6.8%	-10.334
1-9	-10.3344
彩	-10.3345
行业指数	-10.3346
动力煤	-10.3347
律师	-10.335
▁基金	-10.335
7.9	-10.3353
夏	-10.3355
8.6	-10.3362
副	-10.3362
任何机构和个人不得以任何形式翻版	-10.3362
您	-10.3363
5.1	-10.3366
员工持股计划	-10.3368
法定代表人	-10.3368
循环	-10.3369
众多	-10.3374
中小	-10.3378
油气	-10.338
股本	-10.3382
营业	-10.3388
▁七	-10.339
价格指数	-10.339
队	-10.3392
司	-10.3393
新浪财经	-10.3393
理念	-10.3394
享受	-10.3394
新兴	-10.3395
AR	-10.3398
6.2	-10.3401
‘	-10.3402
▁告	-10.3404
▁计	-10.3405
棕榈油	-10.3406
违约	-10.3406
何	-10.3407
9.0%	-10.3408
睿	-10.3408
标普	-10.341
预估	-10.3412
5.7	-10.3413
PC	-10.3414
范围内	-10.342
持续增长	-10.3421
的趋势	-10.3422
:2022	-10.3422
公司已	-10.3422
法人	-10.3423
1.0%	-10.3428
大幅提升	-10.3429
▁87	-10.343
▁室	-10.3431
医	-10.3434
▁分	-10.3439
顶	-10.344
四大	-10.3444
的意见	-10.3446
上交所	-10.3452
眼	-10.3452
▁1%	-10.3453
电器	-10.3456
9.9%	-10.346
SW	-10.3461
每股收益	-10.3466
届	-10.3466
煤矿	-10.3468
封	-10.3468
主要包括	-10.3474
本基金	-10.3477
更是	-10.3481
制品	-10.3483
披露的	-10.3488
展开	-10.3491
项目建设	-10.3492
大于	-10.3496
▁项	-10.3499
这样	-10.3501
赋能	-10.3505
看到	-10.3511
▁2,8	-10.3513
维持在	-10.3518
暨	-10.3518
投资策略	-10.3525
▁0.4	-10.3525
的其他	-10.3525
6.8	-10.3526
笔	-10.3528
储	-10.3531
106	-10.3537
▁77	-10.354
梁	-10.3541
科技创新	-10.3543
2.00	-10.3544
的相关	-10.355
▁80%	-10.3553
工信部	-10.3555
摊销	-10.3556
澳	-10.356
;(2)	-10.356
相当	-10.3563
草	-10.357
发行价格	-10.3572
回复	-10.3575
广泛	-10.3576
照明	-10.3576
豪	-10.3578
2004	-10.3578
多头	-10.3579
复合	-10.3584
▁2,9	-10.3586
▁2.4	-10.3588
2.0%	-10.3593
本集团	-10.3594
450	-10.36
距离	-10.36
一种	-10.3605
块	-10.3611
8.4	-10.3616
有助于	-10.362
0.01	-10.362
精选	-10.3625
▁0.2	-10.3627
财务状况	-10.3628
标准化	-10.3629
▁79	-10.3631
边	-10.3631
▁归母净利润	-10.3633
静	-10.3634
建立了	-10.3638
万亿元	-10.3642
▁少数股东损益	-10.3644
持续提升	-10.3648
基本情况	-10.3649
尼	-10.3649
9.2	-10.3651
等待	-10.3651
首先	-10.3652
▁月底	-10.3653
泉	-10.3654
对其	-10.3654
5.0%	-10.3654
小时	-10.3654
根	-10.3655
学校	-10.3657
朱	-10.3659
今年以来	-10.3662
盘中	-10.3664
交通运输	-10.3664
Jun	-10.3666
优秀	-10.3667
▁6.	-10.3667
海外市场	-10.3667
本报告所载的资料	-10.3669
投資	-10.367
成长性	-10.3673
▁(2	-10.3674
协调	-10.3678
股指	-10.3679
能否	-10.3685
翔	-10.3686
梅	-10.369
6.3	-10.3692
兼	-10.3693
6.5	-10.3696
▁华泰期货研究院	-10.3699
............	-10.3701
导	-10.3701
套利	-10.3712
波动率	-10.3715
集体	-10.3718
管道	-10.3718
具有中国证券业协会授予的证券投资	-10.3719
该股	-10.3721
价格为	-10.3722
▁楼	-10.3722
9.4	-10.3723
申	-10.3725
湾	-10.3726
9.5%	-10.3732
势	-10.3735
高级	-10.374
矿山	-10.3741
高增长	-10.3742
分为	-10.3744
甲	-10.3747
it	-10.3752
国有	-10.3753
▁深圳市	-10.3755
研究员	-10.3762
8000	-10.3762
现金分红	-10.3763
加剧	-10.3764
案例	-10.3766
轮胎	-10.3767
▁少数股东权益	-10.3772
缓慢	-10.3774
锋	-10.3776
纷纷	-10.378
国家统计局	-10.3781
实验室	-10.3782
加入	-10.3783
证券公司	-10.3783
任职	-10.3784
类似	-10.3787
hibor	-10.379
CN	-10.3792
失	-10.3792
地点	-10.3792
research	-10.3793
设置	-10.3795
220	-10.3798
贝	-10.3803
复杂	-10.3811
经理	-10.3814
高速增长	-10.3814
7.5	-10.3816
利润总额	-10.382
良	-10.3823
5.00	-10.3824
私募	-10.3825
联盟	-10.383
特殊普通合伙	-10.383
螺纹钢	-10.3831
国企改革	-10.3831
▁华	-10.3834
▁券	-10.3835
5.9	-10.3836
▁...............	-10.3836
哈	-10.3841
什么	-10.3844
v	-10.3845
人均	-10.3853
收缩	-10.3855
6.9%	-10.3855
费率	-10.3858
其他应收款	-10.386
电信	-10.3861
0.25	-10.3861
2)	-10.3862
▁140	-10.3863
凭借	-10.3864
误导性陈述或者重大遗漏	-10.3869
城投债	-10.3871
参	-10.3871
Feb	-10.388
▁I	-10.3892
券	-10.3893
洲	-10.3894
广场	-10.3897
增发	-10.3902
美元指数	-10.3905
0,000.00	-10.3906
1-	-10.3909
▁敬请阅读末页的重要说明	-10.391
▁4%	-10.3911
/23	-10.3912
市場	-10.3913
优惠	-10.3914
▁0.7	-10.3921
的判断	-10.3922
总数	-10.3925
108	-10.3925
▁名称	-10.3927
左轴	-10.3928
获批	-10.3931
19.	-10.3936
归属于上市公司股东的净利润	-10.3938
延伸	-10.3938
激光	-10.3939
谈判	-10.394
清晰	-10.3942
固	-10.3946
仪	-10.3947
▁总股本	-10.3958
管理制度	-10.3963
2.8%	-10.3963
珠海	-10.3966
连锁	-10.3966
期待	-10.3967
示范	-10.3967
的客户使用	-10.3971
▁0.9	-10.3974
二级	-10.3975
享有	-10.3982
6.7	-10.3982
观望	-10.3982
仁	-10.3984
▁82	-10.3984
证券交易所	-10.3986
解除	-10.3989
▁88	-10.399
钴	-10.3992
ly	-10.3995
需求端	-10.3998
期价	-10.4001
教	-10.4003
减弱	-10.4008
▁务	-10.4012
▁房地产	-10.4013
版权	-10.4013
十分	-10.4015
逾	-10.4016
模	-10.4017
上证综指	-10.4033
快速发展	-10.4033
域	-10.4034
占公司总股本的	-10.4034
批发	-10.4034
公告编号	-10.4037
长江证券研究所	-10.4038
全省	-10.4043
平安	-10.4045
多次	-10.4047
新一轮	-10.4047
▁负债合计	-10.4047
▁资产负债表	-10.405
公募基金	-10.4052
的股东	-10.4052
食	-10.4052
募集资金投资项目	-10.4052
本轮	-10.406
2.9%	-10.4067
▁本期发生额	-10.4068
日常	-10.4076
仍将	-10.408
举措	-10.408
现象	-10.4082
阿里	-10.4083
冲	-10.4085
▁3%	-10.4089
客观地出具本报告	-10.4092
积累	-10.4095
收紧	-10.4102
征	-10.4103
提速	-10.4103
0.02	-10.4106
▁投资评级	-10.411
▁投资要点	-10.411
进一步提升	-10.4115
华泰证券研究所	-10.4115
吸引	-10.412
产业化	-10.4121
1,000	-10.4123
▁➢	-10.4123
信息技术	-10.4125
二期	-10.4127
重点推荐	-10.4128
江西	-10.4128
更多的	-10.4128
登	-10.4132
隔夜	-10.4136
深耕	-10.4136
6%	-10.4137
彭博	-10.4144
留	-10.4149
略有	-10.415
之外	-10.4151
皮	-10.4152
仍处于	-10.4155
纺织	-10.4156
同业	-10.4157
汽	-10.4159
车企	-10.4159
▁●	-10.4163
公里	-10.4167
耐	-10.4168
受理	-10.4174
拓	-10.4177
上证指数	-10.4178
▁0.1	-10.418
乙方	-10.418
▁应收账款	-10.4185
偏弱	-10.4187
启	-10.4188
独	-10.419
投资人	-10.419
▁杨	-10.4191
角度	-10.4191
两年	-10.4192
提价	-10.4192
收回	-10.4193
第六	-10.4194
和其他	-10.4195
发改委	-10.4196
喜	-10.4197
预计公司	-10.4198
悦	-10.4199
识别	-10.4207
足	-10.4207
多元化	-10.4211
的任何	-10.4212
经济发展	-10.4212
的关键	-10.4215
▁3.0	-10.4215
▁ETF	-10.4217
挖掘	-10.4217
16.	-10.4221
▁6%	-10.4222
7.8	-10.4222
中泰证券研究所	-10.4223
地方政府	-10.4229
允许	-10.4231
认定	-10.4236
其实	-10.4237
模块	-10.4242
业绩增长	-10.4243
8.0	-10.4246
7.8%	-10.4246
框架	-10.4252
并于	-10.4254
当月同比	-10.4258
28.	-10.4259
华南	-10.4261
估算	-10.4262
甲方	-10.4263
解释	-10.4265
备	-10.427
上看	-10.4272
消化	-10.4273
601	-10.4275
孙	-10.4276
3.2%	-10.4276
▁公司研究	-10.4277
路径	-10.4278
亿股	-10.4279
三星	-10.4282
8%	-10.4282
财报	-10.4283
民生证券研究院	-10.4285
▁手	-10.4285
修正	-10.4286
的公司	-10.4293
科研	-10.4293
周第	-10.4294
宗	-10.4298
火电	-10.4303
等行业	-10.4304
▁800	-10.4305
AN	-10.4309
一度	-10.4309
止	-10.431
3.1%	-10.4312
形成了	-10.4313
肉	-10.4316
燕	-10.4317
均有	-10.4319
等方式	-10.4321
核心技术	-10.4321
试	-10.4323
7.1%	-10.4324
前述	-10.4324
租金	-10.4325
▁2008	-10.4326
的提升	-10.4327
7.4%	-10.4328
长城	-10.4329
月末	-10.4332
:2018	-10.4335
虽	-10.4337
温	-10.4338
进口量	-10.434
外汇	-10.4341
0004	-10.4342
7.0	-10.4345
天气	-10.4358
地块	-10.4359
的数据	-10.436
的新	-10.4365
集成电路	-10.4367
工资	-10.4369
不少	-10.4371
俊	-10.4381
散	-10.4392
别	-10.4393
巨大	-10.4394
提供的	-10.4396
Aug	-10.4398
详见	-10.4399
万平方米	-10.4404
飞机	-10.4406
容量	-10.4415
证券法	-10.4416
▁*	-10.4417
法国	-10.4419
▁09	-10.4422
6.1	-10.4423
井	-10.4425
万美元	-10.4425
280	-10.4431
专用	-10.4432
▁同时	-10.4432
危机	-10.4432
智能制造	-10.4433
▁收入	-10.4435
▁250	-10.4443
▁6、	-10.4443
民营企业	-10.4448
凸显	-10.4448
白银	-10.4448
租	-10.4458
产销	-10.4459
3.6%	-10.4463
109	-10.4463
税率	-10.4466
人民	-10.4468
13.	-10.447
多种	-10.4474
发生的	-10.4475
融券余额	-10.4476
艾	-10.4476
口径	-10.4482
▁货币资金	-10.4485
情况如下	-10.4486
2003	-10.4487
技术服务	-10.4488
欧美	-10.4499
然而	-10.45
查询	-10.45
▁我们认为	-10.4517
的信息	-10.4524
间接	-10.4524
不断提升	-10.4525
本身	-10.4527
▁84	-10.4532
下的	-10.4532
注销	-10.4533
万亿	-10.4535
单一	-10.4541
▁86	-10.4544
违规	-10.4545
沥青	-10.4545
▁全球	-10.4548
8.2%	-10.455
8.8%	-10.4553
▁销售费用	-10.4559
伦	-10.456
算	-10.4561
充电	-10.4562
梳理	-10.4564
。2)	-10.4566
行使	-10.4571
▁请务必仔细阅读	-10.4576
▁K	-10.4577
废	-10.4578
国金证券研究所	-10.4579
托	-10.4583
现货市场	-10.4583
紧	-10.4586
致力于	-10.459
印	-10.4594
088	-10.46
招股说明书	-10.4602
之下	-10.4606
▁法定代表人	-10.4608
850	-10.461
▁122	-10.4614
商誉	-10.4615
东北	-10.4621
▁市盈率	-10.4622
▁99	-10.4623
有所下降	-10.4623
灵	-10.4626
台湾	-10.4626
走强	-10.463
▁山东	-10.463
240	-10.4634
0.40	-10.4637
适应	-10.4637
的具体	-10.4642
中国证券报	-10.4643
缺口	-10.4648
借助	-10.4648
十四五	-10.4656
▁由于	-10.4657
圣	-10.4657
5:	-10.4657
▁估值	-10.4659
▁账面余额	-10.466
MTN	-10.466
380	-10.4663
8.4%	-10.4665
涵盖	-10.4665
账	-10.4672
单独	-10.4673
4.00	-10.4675
▁n	-10.4677
传感器	-10.468
大幅增长	-10.4685
临时	-10.4689
为例	-10.4696
不到	-10.4705
▁71	-10.4705
定制	-10.4707
呢	-10.4707
解禁	-10.471
振	-10.4712
转变	-10.4714
▁0.3	-10.4717
产能利用率	-10.4717
剑	-10.4719
生产企业	-10.4719
ur	-10.4725
级别	-10.4727
认可	-10.4727
稳增长	-10.4729
上海市	-10.4732
下列	-10.4732
7%	-10.4734
栋	-10.4735
结构性	-10.4738
不锈钢	-10.4739
信心	-10.474
公用事业	-10.474
:2023	-10.4741
粮	-10.4743
规	-10.4745
依	-10.4746
专题	-10.4747
▁涨跌幅	-10.4751
猪	-10.4754
货物	-10.476
▁EBITDA	-10.4761
▁is	-10.4766
贵州	-10.4766
与公司	-10.4766
北京市	-10.4768
▁台	-10.4768
自动驾驶	-10.4768
中药	-10.4771
变更为	-10.4774
冰	-10.4775
5500	-10.4778
会因接收人收到本报告而视其为客户	-10.4782
瓶	-10.4782
所持	-10.4784
技术的	-10.4785
补助	-10.4786
▁经	-10.4793
种植	-10.4796
8.7%	-10.4798
机构投资者	-10.4799
107	-10.4801
对冲	-10.4806
未经书面许可	-10.4806
树	-10.4807
▁95	-10.4811
提名	-10.4812
为代表的	-10.4813
▁110	-10.4822
同增	-10.4822
为人民币	-10.4824
唐	-10.4826
本公司可发出与本报告所载资料	-10.4829
码	-10.483
延长	-10.4832
▁-9	-10.4838
学院	-10.484
目录	-10.4846
完	-10.485
理解	-10.4853
何内容所引致的任何损失负任何责任	-10.4857
韩	-10.4859
▁8%	-10.4865
4.0%	-10.4865
吗	-10.4873
的说明	-10.4874
本次重组	-10.4878
▁G	-10.4879
展示	-10.4879
/18	-10.4881
市场对	-10.4882
啤酒	-10.4883
中美	-10.4889
▁股本	-10.4891
证券研究报告	-10.4895
我公司	-10.4897
各个	-10.4901
▁日期	-10.4903
金融工具	-10.4904
仓储	-10.4909
减值	-10.4912
7:	-10.4915
2,000	-10.4919
超额收益	-10.492
市场预期	-10.4926
泰国	-10.4931
面板	-10.494
世纪	-10.494
列	-10.4942
yoy	-10.4951
税收	-10.4955
配售	-10.496
东北证券	-10.496
(1)	-10.4961
职业	-10.4962
科创	-10.4965
资产负债率	-10.4967
这样的	-10.4968
▁.........	-10.4975
的可能性	-10.4977
烟	-10.4982
股权转让	-10.4986
细胞	-10.4991
▁124	-10.4994
的原则	-10.4997
积	-10.4998
省级	-10.5
沪指	-10.5004
6.1%	-10.5007
海洋	-10.5009
大道	-10.5011
联动	-10.5015
将其	-10.5016
▁3.5	-10.5018
严	-10.502
被动	-10.5022
6:	-10.5023
▁89	-10.5024
▁回避	-10.5029
0.03	-10.5031
提升至	-10.5036
禁止	-10.5038
情况下	-10.5039
003	-10.504
35%	-10.504
下午	-10.5049
高铁	-10.5052
業	-10.5053
▁请仔细阅读在本报告尾部的重要	-10.5057
190	-10.506
服务器	-10.5061
净流出	-10.5063
燃料	-10.5066
检	-10.5067
15.	-10.5068
郑州	-10.5077
首批	-10.5078
开盘	-10.5081
提案	-10.5085
扩产	-10.5087
宜	-10.5088
跨境	-10.5089
问	-10.5094
当时	-10.5095
利润分配	-10.5096
陕西	-10.5097
区块链	-10.5099
伴随	-10.51
▁证券分析师	-10.5103
智能手机	-10.5104
13:	-10.5105
女	-10.5107
▁上期发生额	-10.5108
自有	-10.5108
总股本	-10.5112
审计报告	-10.512
二次	-10.5122
CH	-10.5125
意见及推测不一致的报告	-10.513
论坛	-10.513
周一	-10.5137
yu	-10.5137
行业发展	-10.514
新能源车	-10.5148
较上月	-10.5151
奖励	-10.5156
公司实现营业收入	-10.5163
批文号	-10.5164
▁利润表	-10.5166
▁现金流量表	-10.5168
本金	-10.5169
▁萬	-10.517
厅	-10.5171
检验	-10.5179
8:	-10.518
天风证券	-10.5182
▁年末	-10.5186
-28	-10.5188
后市	-10.5189
物资	-10.5191
260	-10.5191
降价	-10.5193
10000	-10.5196
hk	-10.5199
对外投资	-10.5201
走高	-10.5203
政治	-10.5205
0.80	-10.5208
”“	-10.5208
0.60	-10.521
发动机	-10.521
机组	-10.5211
越来越	-10.5213
动能	-10.5214
印尼	-10.5216
语	-10.5219
▁万桶	-10.5222
手续	-10.5224
充足	-10.5225
校	-10.5226
创业板指	-10.5226
的前提下	-10.5229
走向	-10.523
并非	-10.5233
▁广东	-10.5235
实体经济	-10.5236
整车	-10.524
不构成任何投资建议	-10.5244
菜	-10.5247
况	-10.5249
目的	-10.5251
临近	-10.5251
▁资产总计	-10.5254
生产经营	-10.5258
诚信	-10.526
伊	-10.526
延	-10.5261
收入增速	-10.5262
6.7%	-10.5264
抵押	-10.5265
离	-10.5267
仍是	-10.527
灵活	-10.5277
480	-10.5277
▁净利率	-10.5277
图表	-10.5277
▁万亿	-10.5282
评论	-10.5284
国际化	-10.5289
TOP	-10.529
文章	-10.529
截至目前	-10.5292
加拿大	-10.5293
男	-10.5295
鸡	-10.5297
光学	-10.5299
真正	-10.5299
活力	-10.53
▁相关报告	-10.5303
9.5	-10.5306
味	-10.531
免责声明	-10.5311
)|	-10.5315
14:	-10.5315
公募	-10.5323
货币资金	-10.5326
0.04	-10.5326
只能	-10.5328
塑	-10.5328
的资金	-10.5328
▁92	-10.5336
將	-10.5336
(2009)1210	-10.5339
▁证监会审核华创证券	-10.5343
报收	-10.5345
▁汽车	-10.5345
实时	-10.5346
票房	-10.5348
逾期	-10.5349
银行业	-10.535
▁3.3	-10.535
7.2%	-10.5353
相同	-10.5354
子行业	-10.5356
4.2%	-10.5359
▁产	-10.536
中国经济	-10.5362
可期	-10.5363
的市场	-10.5364
模组	-10.5367
有序	-10.537
洁	-10.537
1-5	-10.5373
请务必	-10.5375
▁160	-10.5376
澳大利亚	-10.5378
报告中	-10.5379
主板	-10.5379
兵	-10.538
简单	-10.538
分钟	-10.5381
注入	-10.5382
信用风险	-10.5382
机械设备	-10.5382
电价	-10.5385
资产的	-10.539
售价	-10.539
信用利差	-10.5391
法律法规	-10.5392
网络投票	-10.5393
市场空间	-10.5393
性价比	-10.5397
一旦	-10.5398
个别	-10.5398
关税	-10.5398
▁近日	-10.54
营业成本	-10.54
知识	-10.5401
本报告所指的证券或投资标的的价格	-10.5402
2002	-10.5407
内地	-10.5407
8.0%	-10.5408
如今	-10.5411
▁究	-10.5412
股权投资	-10.5414
▁行业评级	-10.5416
III	-10.542
自营	-10.5421
书面	-10.5423
长沙	-10.5429
on	-10.5435
一系列	-10.5435
用地	-10.5436
资管	-10.5436
币	-10.5441
梦	-10.5443
角	-10.5444
99.	-10.5448
Title	-10.5449
话	-10.5452
▁本公司具备证券投资咨询业务资格	-10.5452
旨在	-10.5454
恶化	-10.5465
▁0.02	-10.5466
在国内	-10.5466
流动	-10.547
北方	-10.5471
-30	-10.5472
言	-10.5472
压制	-10.5475
4%	-10.5475
适合	-10.5477
引发	-10.548
家具	-10.5487
+3	-10.5487
不大	-10.5488
▁目	-10.5488
慧	-10.5489
7.6%	-10.5494
反馈	-10.5495
或其	-10.5498
▁1.6	-10.5502
▁备注	-10.5503
▁公司名称	-10.5503
▁zhang	-10.5505
算力	-10.5506
中债	-10.5513
▁research	-10.5513
6.0%	-10.5517
▁.............	-10.5519
特种	-10.5521
正文之后的各项信息披露与声明	-10.5522
全市	-10.5523
催化	-10.5527
密	-10.5528
将达到	-10.5531
230	-10.5538
\	-10.5539
生效	-10.554
胡	-10.5541
收费	-10.5543
炉	-10.5545
分位数	-10.5546
模拟	-10.5547
超越	-10.5549
万人	-10.5551
内部控制	-10.5557
完成了	-10.5559
125	-10.556
的资产	-10.5565
-24	-10.5567
螺纹	-10.5569
0.0000	-10.557
一条	-10.5571
9:	-10.5573
公司对	-10.5573
迎	-10.5574
9.0	-10.5574
细分	-10.5576
唐山	-10.5585
跑	-10.5594
▁............	-10.5597
即使	-10.5597
总市值	-10.56
编号	-10.5603
9.3	-10.5603
曲	-10.5605
PS	-10.5606
Summary	-10.5606
剧	-10.5608
17.	-10.5608
记	-10.5609
人群	-10.5611
增加了	-10.5613
郑	-10.5614
用品	-10.5614
金价	-10.5614
降准	-10.5615
曲线	-10.5616
公司债券	-10.5618
经济数据	-10.562
对应的	-10.5624
二级市场	-10.5624
还将	-10.5625
大跌	-10.5625
单价	-10.5625
大宗商品	-10.5626
重启	-10.5627
7.6	-10.5631
▁资产减值损失	-10.5633
▁li	-10.5634
管理费用	-10.564
进而	-10.5641
欧元区	-10.5642
自行	-10.5645
證券	-10.5646
意义	-10.5648
索	-10.565
搭建	-10.5653
▁持有	-10.5656
概况	-10.5672
显现	-10.5672
▁坏账准备	-10.5673
并将	-10.5675
,2023	-10.568
的行业	-10.568
蒙	-10.5681
多项	-10.5683
附	-10.5684
5.7%	-10.5684
le	-10.5688
刊发	-10.5692
▁96	-10.5692
104	-10.5693
秀	-10.5693
7.0%	-10.5694
宽	-10.5695
左	-10.5697
外贸	-10.5698
转载	-10.5699
硕士	-10.5699
分别是	-10.5704
审慎	-10.5708
瓦	-10.5708
股数	-10.571
在建工程	-10.5719
分散	-10.572
:1、	-10.572
实现收入	-10.5721
无锡	-10.5721
包括但不限于	-10.5721
律师事务所	-10.5722
许	-10.5722
位居	-10.5727
取得了	-10.5729
▁非	-10.5732
生产基地	-10.5732
▁请参阅最后一页的重要声明	-10.5733
稳步	-10.5735
持有人	-10.5738
225	-10.5741
▁3,2	-10.5743
为基准	-10.5743
▁3,0	-10.5743
享	-10.5744
优先股	-10.5744
8.5	-10.5745
西藏	-10.5747
周边	-10.5749
清算	-10.5754
7.	-10.5757
制剂	-10.5758
贵金属	-10.5759
▁98	-10.5763
▁所得税	-10.5765
價	-10.5772
▁3,3	-10.5777
定期报告	-10.5783
本土	-10.5783
高速公路	-10.5784
▁5.00	-10.5785
固定资产投资	-10.5786
焦	-10.5786
装机	-10.5787
省份	-10.5788
解读	-10.5789
千克	-10.5789
升至	-10.5791
照	-10.5792
费用率	-10.5795
影响力	-10.5795
2500	-10.58
光大证券研究所	-10.58
组成	-10.5802
产品线	-10.5802
仪器	-10.5803
▁中证	-10.5808
财产	-10.5809
%)	-10.5809
4.5%	-10.5812
8.3	-10.5816
5.00%	-10.5816
主要从事	-10.5827
资本开支	-10.5829
靠	-10.5833
▁近	-10.5833
旭	-10.5834
ch	-10.5836
▁00	-10.5839
都有	-10.584
超市	-10.5842
卫生	-10.5844
官	-10.5844
合肥	-10.5847
煤价	-10.585
550	-10.5852
▁2,0	-10.5863
是一家	-10.5865
▁...........	-10.5866
始终	-10.5867
安信证券研究中心	-10.5869
有一定	-10.5876
2.50	-10.5876
2.7%	-10.5881
财务顾问	-10.5884
地址	-10.5885
转型升级	-10.5888
算法	-10.5889
种类	-10.5891
尽	-10.5893
职责	-10.5896
要素	-10.5897
▁股票代码	-10.5897
相互	-10.5898
11:	-10.59
并没有	-10.5901
东吴证券研究所	-10.5902
水务	-10.5904
0.35	-10.5908
所属	-10.5909
CD	-10.5911
景区	-10.5911
助	-10.5914
0.75	-10.5917
消费电子	-10.5919
十三五	-10.5919
休闲	-10.5921
本报告中的信息	-10.5923
公司股票自	-10.5924
谈	-10.5925
北美	-10.5926
完毕	-10.5929
▁93	-10.5934
中國	-10.5934
商用	-10.5935
弱势	-10.5936
超级	-10.5937
韧性	-10.5937
分级	-10.5938
大概率	-10.5938
已完成	-10.5939
借	-10.5939
▁0.10	-10.5943
▁94	-10.5944
切	-10.5945
豆	-10.5953
8.6%	-10.5957
票反对	-10.5959
8.2	-10.5961
▁其他流动资产	-10.5966
反转	-10.5969
/19	-10.5971
掌握	-10.5972
麦	-10.5973
账面价值	-10.5975
▁08	-10.5982
专注于	-10.5982
▁81	-10.5982
▁180	-10.5983
▁座	-10.5985
第七	-10.5985
7.50	-10.5986
寻找	-10.5987
如此	-10.5993
差距	-10.5994
协	-10.5996
实质性	-10.5996
最多	-10.5996
▁4000	-10.5999
0005	-10.6001
丝	-10.6003
88.	-10.6004
缴纳	-10.6007
51%	-10.6008
最佳	-10.601
的政策	-10.6011
利息收入	-10.6015
约束	-10.6021
等级	-10.6022
12%	-10.6024
的表现	-10.6027
姓名	-10.6028
▁1500	-10.6036
牛市	-10.6036
停止	-10.6036
公开发行	-10.6036
page	-10.6038
三是	-10.6039
的个股	-10.6039
几乎	-10.6042
▁相关研究	-10.6043
国盛证券研究所	-10.6044
▁0.50	-10.6044
很大	-10.6046
母	-10.6046
没有虚假记载	-10.6048
MLF	-10.6049
氢	-10.605
▁额	-10.605
净买入	-10.6054
非公开发行股票	-10.6054
医保	-10.6055
放松	-10.6056
盎司	-10.6057
出版	-10.6057
争	-10.606
大连	-10.6061
化妆品	-10.6061
基本每股收益	-10.6062
停产	-10.6067
合伙人	-10.6068
将持续	-10.6077
十二	-10.6083
以勤勉的职业态度	-10.6083
唯一	-10.6087
10:	-10.609
百货	-10.6091
▁晨会纪要	-10.6092
吃	-10.6092
144	-10.6095
配送	-10.6097
锂电	-10.6098
中枢	-10.6104
差异化	-10.6105
1.50	-10.6107
业务发展	-10.6109
》;	-10.611
粤	-10.611
断	-10.6112
下周	-10.6113
保留	-10.6114
及以上	-10.6115
▁0.05	-10.6116
▁wang	-10.6123
1.15	-10.6125
适当	-10.613
归母净利	-10.613
新华	-10.614
业内	-10.6141
9.1	-10.6143
求	-10.6144
形态	-10.6145
东南亚	-10.6145
8.1	-10.6146
摊薄	-10.6152
免税	-10.6153
2030	-10.6153
29.	-10.6153
房地产市场	-10.6154
营业利润	-10.6156
意向	-10.6157
新技术	-10.6159
许可证	-10.6163
主线	-10.6164
-29	-10.6166
竞争优势	-10.6167
污染	-10.6171
el	-10.6171
做到	-10.6172
恒大	-10.6176
中金公司研究部	-10.6176
当然	-10.618
都在	-10.6184
本地	-10.6185
产权	-10.6186
守	-10.6186
▁130	-10.6189
月至	-10.6189
市场情绪	-10.6189
▁..............	-10.619
在内的	-10.619
小于	-10.619
0.30	-10.6192
国资	-10.6192
3.3%	-10.6195
阿里巴巴	-10.6198
茅台	-10.6204
對	-10.6206
起来	-10.6209
时尚	-10.6213
▁Co	-10.6213
岗位	-10.6215
▁会计年度	-10.6215
五粮液	-10.6219
表决权	-10.6222
而在	-10.6224
切实	-10.6224
3.20	-10.6227
匹配	-10.6227
可靠	-10.6228
日起停牌	-10.623
意见及推测仅	-10.6233
轴	-10.6235
华泰研究	-10.6236
雄	-10.6237
器件	-10.6238
企业债	-10.6241
国内市场	-10.6245
1.25	-10.6249
全新	-10.6249
由此	-10.6255
长期股权投资	-10.6256
均衡	-10.6257
▁12%	-10.6257
城镇	-10.6257
▁月以来	-10.6265
反映本公司于发布本报告当日的判断	-10.6268
巩固	-10.6277
牌照	-10.628
大幅下降	-10.628
ation	-10.6282
电动	-10.6284
贸	-10.6285
录得	-10.6285
流出	-10.6286
转股	-10.6286
尾	-10.6289
▁97	-10.629
▁作者	-10.6293
举办	-10.6293
所述	-10.6297
0.07	-10.6297
元币种	-10.6298
▁0.25	-10.6298
护	-10.6302
累积	-10.6302
代理人	-10.6304
▁0.03	-10.6306
FY	-10.6307
投资机会	-10.6311
考	-10.6314
予	-10.6318
实现净利润	-10.6318
发电量	-10.6318
▁V	-10.6319
950	-10.6319
产品价格	-10.6319
津	-10.632
准则	-10.6322
辽宁	-10.6322
发行的	-10.6322
的部分	-10.6323
早盘	-10.6327
华北	-10.6328
维修	-10.6329
2.75	-10.6331
请务必阅读正文之后的免责声明部分	-10.6331
多空	-10.6334
235	-10.6334
的业务	-10.6339
多年	-10.634
消费品	-10.634
内蒙古	-10.6341
▁本公司及董事会全体成员	-10.6343
收入增长	-10.6343
受限	-10.6345
相关事项	-10.6348
周二	-10.6349
▁5000	-10.6349
馆	-10.6351
1.05	-10.6351
业绩承诺	-10.6353
8.9%	-10.6358
签署了	-10.6359
转为	-10.6364
涉	-10.6372
朗	-10.6377
320	-10.6378
銀行	-10.638
6.00	-10.6382
低点	-10.6386
国有企业	-10.6387
周三	-10.6391
依靠	-10.6392
一线城市	-10.6393
航运	-10.6396
首个	-10.6396
5.5%	-10.64
收入占比	-10.6401
沈阳	-10.6402
销售费用	-10.6404
法院	-10.6404
阅读正文之后的信息披露和免责申明	-10.6407
特此声明	-10.6408
un	-10.6409
▁1.8	-10.641
2.60	-10.6413
电动车	-10.6413
委托人	-10.6414
编	-10.6419
中报	-10.6419
境	-10.642
何意见或建议是否符合其特定状况	-10.6423
50,000	-10.6425
年化	-10.6425
ent	-10.6426
0.70	-10.6426
▁合	-10.6431
针	-10.6431
不同的	-10.6431
锐	-10.6434
写	-10.6437
亿元人民币	-10.6442
股份的	-10.6443
所有者权益	-10.6446
「	-10.6448
▁3,5	-10.645
聘请	-10.6451
▁净资产收益率	-10.6453
▁日至	-10.6456
港股通	-10.6458
苗	-10.6458
客户的	-10.646
金额为	-10.6461
环比上升	-10.6461
188	-10.6463
越南	-10.6464
许多	-10.6467
0.45	-10.6469
▁2.6	-10.6471
▁3,4	-10.6472
获悉	-10.6472
合成	-10.6473
次数	-10.6476
万手	-10.6476
5,000.00	-10.6478
▁市场有风险	-10.648
270	-10.6483
晋	-10.6488
但在	-10.6492
寻求	-10.6493
新区	-10.6494
半年	-10.6496
服务标记及标记	-10.65
控股有限公司	-10.65
浦	-10.6502
壁垒	-10.6505
宁夏	-10.6505
透露	-10.6505
市场占有率	-10.6506
估值水平	-10.6506
终	-10.6509
合作伙伴	-10.6511
理由	-10.6516
倒	-10.6523
-26	-10.6526
日止	-10.6526
26.	-10.6538
分销	-10.6541
。2018	-10.6543
008	-10.6543
提取	-10.6544
首发	-10.6546
疫情防控	-10.6547
抬升	-10.6549
▁次	-10.655
公司通过	-10.6551
崛起	-10.6551
IDC	-10.6552
REITs	-10.6554
上市公司的	-10.6558
副总裁	-10.6559
途	-10.656
稳定性	-10.6561
的能力	-10.6561
6.5%	-10.6562
并不构成对任何人的投资建议	-10.6565
促	-10.6565
的行为	-10.6567
调控	-10.6568
偏低	-10.6573
▁电子	-10.6575
责	-10.6582
低估值	-10.6583
▁营业税金及附加	-10.6586
发行股份	-10.6587
法定	-10.6587
技术创新	-10.6589
OLED	-10.659
抑制	-10.6593
0.06	-10.6593
一项	-10.6597
博弈	-10.6598
两种	-10.6599
发行规模	-10.6601
▁主要	-10.6604
排放	-10.6608
▁0.20	-10.6609
▁投资收益	-10.661
上方	-10.661
维度	-10.6611
▁-20%	-10.6612
高点	-10.6615
收取	-10.6618
的内容	-10.6619
有可能	-10.6619
宁德时代	-10.662
互	-10.6625
680	-10.6627
机电	-10.6627
▁0.04	-10.6631
商业化	-10.6632
年以内	-10.6633
仙	-10.6637
有效的	-10.664
理论	-10.664
时点	-10.6642
当下	-10.6646
的优势	-10.6647
行权	-10.665
3.8%	-10.6651
as	-10.6653
方面的	-10.6655
▁长期股权投资	-10.6656
取得的	-10.6656
高新	-10.6656
▁归属母公司净利润	-10.6657
购物	-10.6657
创投	-10.6661
着力	-10.6663
成效	-10.6665
养	-10.6667
医学	-10.667
日开市起停牌	-10.667
辅助	-10.6673
认真	-10.6675
山东省	-10.6676
CP	-10.6676
▁-20	-10.6676
3.4%	-10.6676
空头	-10.6677
060	-10.6677
是在	-10.6684
▁公	-10.6684
十一	-10.6686
不发出通知的情形下做出修改	-10.6686
知识产权	-10.6686
研究中心	-10.6687
▁黄	-10.6687
值得	-10.669
处罚	-10.6692
应急	-10.6693
整改	-10.6694
基因	-10.6703
装修	-10.6707
较快	-10.671
▁(6)	-10.6711
13%	-10.6712
或行业指数	-10.6721
圆	-10.6721
本月	-10.6722
▁广州	-10.6723
超额	-10.6725
播	-10.6727
医药生物	-10.6727
▁-10%	-10.6731
中位数	-10.6735
参数	-10.6736
而是	-10.6738
580	-10.6739
十年	-10.6742
深度报告	-10.6745
▁10.00	-10.6746
健全	-10.6747
走低	-10.6748
▁海	-10.675
集中度	-10.6752
Report	-10.6754
芳	-10.6759
郭	-10.6759
102	-10.6762
密集	-10.6762
封装	-10.6763
硅片	-10.6764
5.50	-10.6764
曼	-10.6766
民营	-10.6767
PVC	-10.6771
强度	-10.6771
0.05	-10.6773
9000	-10.6776
产线	-10.6777
(2)	-10.6777
政府补助	-10.6779
将进一步	-10.6779
变动情况	-10.678
3.25	-10.6782
相信	-10.6785
洛	-10.6787
-27	-10.6788
信息披露义务人	-10.6788
本次交易的	-10.679
▁3.00	-10.6791
屏	-10.6795
全体股东	-10.6796
往往	-10.6796
核心竞争力	-10.6797
▁3,6	-10.6798
的目标	-10.6801
置换	-10.6803
灯	-10.6804
经历	-10.6805
0.08	-10.6806
中海	-10.6808
CS	-10.6809
▁年全球	-10.681
五年	-10.681
较大的	-10.6811
风险偏好	-10.6813
200.00	-10.6815
今	-10.6815
CC	-10.6816
门槛	-10.6822
将是	-10.6827
057	-10.6832
作业	-10.6833
西部	-10.6836
亩	-10.6837
四个	-10.6838
▁3,7	-10.6844
DR	-10.6845
3.7%	-10.6845
▁7%	-10.6846
低价	-10.6849
主营业务收入	-10.685
▁91	-10.6851
-2023	-10.6854
▁..........	-10.6857
既	-10.6859
类产品	-10.6861
培养	-10.6862
45%	-10.6864
and	-10.6865
...........	-10.6867
▁3.4	-10.6867
发生变化	-10.687
总投资	-10.6871
资产总额	-10.6874
中国移动	-10.6874
中华人民共和国	-10.6874
可持续发展	-10.6875
新城	-10.6875
工商	-10.6877
公示	-10.6877
一起	-10.6882
研制	-10.6882
▁截止	-10.6883
国金证券	-10.6883
▁销售经理	-10.6884
榜	-10.6884
产品结构	-10.6886
持续推进	-10.6887
斌	-10.6889
▁4.2	-10.689
560	-10.6896
基础上	-10.6896
扣非净利润	-10.6897
一样	-10.6897
▁年同期	-10.6897
高性能	-10.6898
脱	-10.6901
创新药	-10.6902
0.15	-10.6902
损害	-10.6902
▁105	-10.6903
kg	-10.6904
880	-10.6904
▁长	-10.6906
车载	-10.6909
是公司	-10.6909
混	-10.6911
请务必阅读最后一页免责声明	-10.6913
发展战略	-10.6913
抢	-10.6916
交易价格	-10.6917
▁有色金属	-10.6918
忠	-10.6919
1.20	-10.6921
......	-10.6922
5.4%	-10.6923
005	-10.6928
新兴市场	-10.6934
0.38	-10.6935
定向	-10.6936
发行股份及支付现金购买资产	-10.694
钟	-10.6941
115	-10.6941
0.65	-10.6943
14%	-10.6944
涉及的	-10.6945
乡	-10.6948
异	-10.695
股息	-10.6952
888	-10.6954
▁银行	-10.6954
发行股份购买资产	-10.6962
商家	-10.6962
延期	-10.6966
保险公司	-10.6968
:2021	-10.6969
名义	-10.6971
0.55	-10.6971
票弃权	-10.6971
主席	-10.6972
遵守	-10.6973
解锁	-10.6974
可比公司	-10.6978
各大	-10.6979
湘	-10.6979
杀	-10.6981
▁海外	-10.6986
经营管理	-10.6988
压缩	-10.6991
▁自	-10.6992
现实	-10.7001
兑现	-10.7003
折算	-10.7003
▁万台	-10.7005
0.90	-10.7006
充分发挥	-10.7007
探	-10.7007
太阳能	-10.7008
出让	-10.7011
客车	-10.7011
us	-10.7012
资产负债表	-10.7012
135	-10.7013
的销售	-10.7013
乙烯	-10.7014
▁2007	-10.7016
学生	-10.7021
168	-10.7021
承接	-10.7022
38.	-10.7024
6.50	-10.7024
产出	-10.7026
上市的	-10.7026
实践	-10.7028
公司发布	-10.7033
生产的	-10.7033
6.3%	-10.7035
制约	-10.7038
CR	-10.7042
在未来	-10.7044
开采	-10.7044
扬	-10.7045
五大	-10.7046
弘	-10.7048
变现	-10.705
街道	-10.7051
▁1.7	-10.7053
▁p	-10.7055
CAGR	-10.7056
全方位	-10.7057
0.34	-10.7057
猪价	-10.7064
儿	-10.7065
冬	-10.7066
▁益	-10.7066
史	-10.7069
▁条	-10.7071
清洁	-10.7075
前后	-10.7077
财务数据	-10.7079
很难	-10.7084
▁3,8	-10.7086
竣工	-10.709
▁品	-10.7091
3.75	-10.7092
办公室	-10.7093
電	-10.7093
营	-10.7094
简	-10.7095
1.02	-10.7096
2.22	-10.7098
募资	-10.7099
产业园	-10.7101
0.19	-10.7101
辰	-10.7101
迹象	-10.7105
re	-10.7107
统筹	-10.7108
优选	-10.711
136	-10.7111
夜	-10.7113
340	-10.7115
国防军工	-10.7119
▁中國	-10.7121
是否存在	-10.7123
华泰	-10.7125
支付的	-10.7126
▁2.00	-10.7127
露	-10.7127
高新区	-10.7128
▁Research	-10.713
日益	-10.7131
▁近期	-10.7132
0.32	-10.7132
0.48	-10.7135
▁---	-10.7135
贸易商	-10.7136
▁综合	-10.714
▁4.1	-10.7142
es	-10.7144
人工	-10.7147
单月	-10.7152
疲软	-10.7152
▁.......	-10.7152
-12-31	-10.7157
0.36	-10.7158
房地产开发	-10.7159
提供担保	-10.7159
」	-10.7166
後	-10.7172
▁计算机	-10.7174
应收款项	-10.7175
研发费用	-10.7177
3.60	-10.7179
医疗服务	-10.7179
▁(3	-10.7183
▁度	-10.7184
▁113	-10.7186
145	-10.7189
互联	-10.7189
▁简单金融	-10.719
▁10000	-10.7191
转入	-10.7191
▁70%	-10.7194
▁4.0	-10.7197
人民币汇率	-10.7203
▁证	-10.7203
篇	-10.7206
报表	-10.7207
日讯	-10.7208
16%	-10.721
沃	-10.7211
▁时间	-10.7211
业态	-10.7216
保费	-10.7217
迈	-10.7219
供给端	-10.7221
厂房	-10.7221
日收盘	-10.7228
▁3,9	-10.7231
▁港元	-10.7231
案件	-10.7233
7.5%	-10.7233
鲜	-10.7236
后果	-10.7237
已在	-10.7239
18%	-10.724
0.33	-10.7248
3.9%	-10.7249
专门	-10.7252
事业部	-10.7253
实际上	-10.7255
0.10	-10.7256
电动汽车	-10.7261
合金	-10.7265
农林牧渔	-10.7266
▁■	-10.7266
1.08	-10.7267
地铁	-10.7268
银河	-10.727
660	-10.727
猪肉	-10.7271
工程机械	-10.7271
▁增速	-10.7271
基础设施建设	-10.7272
信达证券研发中心	-10.7273
本研究报告	-10.7275
磁	-10.7277
0.20	-10.7277
接收	-10.7278
仲裁	-10.7279
阅读正文之后的信息披露和重要声明	-10.728
国资委	-10.7281
如引用	-10.7282
纺织服装	-10.729
▁2,000	-10.7291
确定性	-10.7292
0.39	-10.7292
环比上涨	-10.7296
22.	-10.7298
仓单	-10.7298
暂	-10.7301
禾	-10.7302
98.	-10.7303
▁月末	-10.7312
▁成就梦想	-10.7312
的机会	-10.7313
▁International	-10.7315
等地	-10.7315
0.85	-10.7315
▁位	-10.7316
服务商	-10.7319
一次性	-10.7319
凡	-10.7319
▁◼	-10.7319
11%	-10.732
2.90	-10.732
扩展	-10.7321
LNG	-10.7321
餐	-10.733
一切	-10.733
诊断	-10.733
2.45	-10.7331
175	-10.7331
▁0.08	-10.7334
印发	-10.7337
群体	-10.7338
股票期权	-10.7339
溢价率	-10.734
▁涨跌	-10.7342
反复	-10.7342
视为	-10.7347
选股	-10.7347
技	-10.7349
泛	-10.735
US	-10.735
但由于	-10.7351
增至	-10.7353
▁107	-10.7354
0.37	-10.7358
▁重要声明	-10.7359
锁定	-10.736
加盟	-10.7363
4.4%	-10.7363
庄	-10.7367
▁市净率	-10.7368
年至	-10.7374
基金份额	-10.7378
有着	-10.7379
0.95	-10.7379
▁LME	-10.7379
3.10	-10.7382
较去年同期	-10.7387
三个月	-10.739
17%	-10.7391
传真	-10.7393
者应当自行关注相应的更新或修改	-10.7394
请务必阅读正文之后的重要声明部分	-10.7397
4.6%	-10.7398
难度	-10.7401
在美国	-10.7405
置业	-10.7405
4.8%	-10.7407
134	-10.741
西北	-10.7412
1200	-10.7414
将对	-10.7415
▁持	-10.7417
公司目前	-10.7418
细	-10.7419
▁强烈推荐	-10.7419
高压	-10.7421
0.51	-10.7421
江苏省	-10.7422
章程	-10.7424
报告版权属于安信证券股份有限公司	-10.7425
加码	-10.7425
▁天津	-10.7427
意大利	-10.7431
投资的	-10.7431
▁CLSA	-10.7431
华泰证券	-10.7432
蛋白	-10.7434
阳光	-10.7441
的董事	-10.7444
▁1.9	-10.7447
0.49	-10.7448
的交易	-10.7448
本期债券	-10.7449
目前的	-10.745
讲	-10.7451
138	-10.7453
1.13	-10.7454
社融	-10.7455
相对于	-10.7455
债券市场	-10.7456
外盘	-10.7457
无需	-10.7457
156	-10.7459
618	-10.746
▁139	-10.7466
2.35	-10.7467
方正证券研究所	-10.7472
仅有	-10.7474
贴水	-10.7474
准确和完整	-10.7478
0.09	-10.7481
现货价	-10.7483
调整后	-10.7484
美豆	-10.7486
尿素	-10.7489
方便	-10.749
所得税	-10.7491
放大	-10.7491
挂	-10.7494
调整为	-10.7495
需求的	-10.7495
0.42	-10.7497
园林	-10.7498
▁流动资产	-10.7499
0.44	-10.75
证券投资咨询业务资格	-10.7501
290	-10.7504
▁流动负债	-10.7504
秦	-10.7505
堂	-10.7505
▁2.8	-10.7506
3.40	-10.7507
同比上涨	-10.7508
2.65	-10.751
上海证券报	-10.7511
4.3%	-10.7512
下属	-10.7513
旺	-10.7513
商务部	-10.7514
熊	-10.7514
金融市场	-10.752
ic	-10.752
0)	-10.752
利率债	-10.7523
利空	-10.7524
的作用	-10.7524
7000	-10.7525
甘肃	-10.7528
▁吴	-10.7529
财务报告	-10.7529
输	-10.7529
高增	-10.7531
西南	-10.7535
首席	-10.7535
不构成	-10.7536
的技术	-10.7538
的基础	-10.7539
大力	-10.754
电厂	-10.754
113	-10.754
大幅增加	-10.754
加之	-10.7541
基站	-10.7541
75%	-10.7541
农商行	-10.7542
118	-10.7544
意识	-10.7545
珠	-10.7549
固收	-10.7554
21%	-10.7556
风险管理	-10.7556
率为	-10.7557
苏宁	-10.7558
日下午	-10.7558
汇总	-10.7559
▁0.06	-10.7565
第一次	-10.7566
4.75	-10.7567
升水	-10.7569
机关	-10.7569
25.	-10.757
周环比	-10.757
经营业绩	-10.7572
人们	-10.7573
然后	-10.7574
销售费用率	-10.7574
表决结果	-10.7577
汽车行业	-10.7579
兑付	-10.7579
预警	-10.7579
核算	-10.758
▁万人	-10.7581
系数	-10.7581
▁3)	-10.7583
注重	-10.7583
在全球	-10.7585
3.80	-10.7587
早报	-10.7588
0.46	-10.7588
董	-10.7589
不达预期	-10.7593
茶	-10.7594
▁食品饮料	-10.7599
▁128	-10.7601
3.30	-10.7601
▁	-10.7601
公司股价	-10.7601
油脂	-10.7604
公司股东	-10.7605
▁14%	-10.7607
联系人	-10.7609
网点	-10.7611
1.14	-10.7613
礼	-10.7614
年年度报告	-10.7615
2.17	-10.7621
趋于	-10.7622
管理人	-10.7622
ESG	-10.7623
YOY	-10.7624
27.	-10.7624
行业内	-10.7627
國際	-10.7627
1.04	-10.7628
贬值	-10.7629
114	-10.7631
公司债	-10.7631
渗透	-10.7635
:2016	-10.7635
IH	-10.7636
的公允价值	-10.7636
▁........	-10.7638
与此同时	-10.7641
领涨	-10.7642
华润	-10.7643
1.40	-10.7644
1.35	-10.7645
0.24	-10.7646
氧	-10.7647
东莞	-10.7647
疾病	-10.7647
货运	-10.7649
再融资	-10.765
中高端	-10.7652
几个	-10.7654
1.10	-10.7655
频	-10.7656
授权委托书	-10.7656
股权激励计划	-10.7658
都会	-10.7658
鉴于	-10.7658
新一代	-10.766
放开	-10.7662
移	-10.7664
155	-10.7664
侧	-10.7665
顾问	-10.7669
137	-10.767
相关规定	-10.7677
OPEC	-10.7677
土地使用权	-10.7679
人的	-10.7679
并对	-10.768
融资租赁	-10.7681
▁2.7	-10.7683
淡季	-10.7684
2.85	-10.7685
更好	-10.7685
跌停	-10.7686
2.07	-10.7689
高峰	-10.7689
的金额	-10.769
传输	-10.7695
纤维	-10.7699
▁0.15	-10.77
募集配套资金	-10.7701
2.09	-10.7703
0.68	-10.7706
浙江省	-10.7707
▁YoY	-10.7711
1.22	-10.7714
2.13	-10.7715
的水平	-10.7715
卷	-10.7717
ra	-10.7718
资产质量	-10.7721
听	-10.7723
造	-10.7724
原有	-10.7725
调节	-10.7725
专题报告	-10.7726
2.27	-10.7727
1.03	-10.7729
公司产品	-10.7731
吉林	-10.7732
用电	-10.7734
地区的	-10.7734
4.1%	-10.7739
以外	-10.7739
功率	-10.7739
外币	-10.7742
時	-10.7742
菜粕	-10.7743
白糖	-10.7744
扰动	-10.7744
防范	-10.7747
有机	-10.7748
中航	-10.775
资金来源	-10.775
470	-10.7753
统	-10.7753
▁入	-10.7755
----	-10.7755
WTI	-10.776
本次非公开发行	-10.7765
裕	-10.7765
平均值	-10.7767
▁135	-10.7768
3.15	-10.7769
▁谨请参阅尾页重要	-10.777
东方证券研究所	-10.7771
▁108	-10.7772
指数上涨	-10.7772
投资管理有限公司	-10.7773
▁106	-10.7774
陶瓷	-10.7774
行业龙头	-10.7774
2.16	-10.7775
总监	-10.7775
0.28	-10.7776
免疫	-10.7777
数据库	-10.7779
万元人民币	-10.7782
跌破	-10.7782
1.94	-10.7782
水利	-10.7785
4.7%	-10.7786
股权登记日	-10.7787
金融科技	-10.7787
2.14	-10.7789
1.06	-10.7793
旅	-10.7793
限产	-10.7793
的工作	-10.7794
▁4.5	-10.7796
5%,	-10.78
热度	-10.78
▁流动比率	-10.7801
普通股	-10.7802
免费	-10.7803
两者	-10.7805
证券之星	-10.7811
5.6%	-10.7812
201	-10.7816
粮食	-10.7816
▁be	-10.7818
購	-10.7818
消费升级	-10.7819
▁指数为基准	-10.782
月报	-10.782
SUV	-10.782
2.95	-10.7821
房地产行业	-10.7824
▁账面价值	-10.7828
0.52	-10.7829
0.47	-10.783
330	-10.783
▁点评	-10.7832
欧元	-10.7832
▁–	-10.7835
氧化	-10.7835
力争	-10.7836
390	-10.7837
拉升	-10.7838
股东权益	-10.7841
4.20	-10.7841
环比增加	-10.7842
不因	-10.7843
PX	-10.7844
159	-10.7844
收涨	-10.7844
0.41	-10.7845
负荷	-10.7853
征收	-10.7854
的研究	-10.7855
到位	-10.7856
准确性和完整性不作任何保证	-10.7861
ad	-10.7862
市场上	-10.7863
纽约	-10.7864
增减	-10.7864
1.60	-10.7865
对价	-10.7867
2.55	-10.7868
停车	-10.7871
的合作	-10.7871
▁c	-10.7873
融券卖出	-10.7874
当天	-10.7875
0.22	-10.7875
166	-10.7876
co	-10.7879
▁成	-10.7882
128	-10.7883
85%	-10.7885
应收	-10.7888
列示	-10.7889
▁人民币普通股	-10.789
ion	-10.7891
0.58	-10.7891
无论是	-10.7892
0200400600800	-10.7893
议	-10.7894
Page	-10.7895
2.23	-10.7895
洗	-10.7895
毅	-10.79
▁业绩	-10.7902
提出了	-10.7903
0.64	-10.7905
产值	-10.7906
▁9%	-10.7906
万台	-10.7907
8.00	-10.7909
1.99	-10.7911
投资组合	-10.7912
▁136	-10.7914
186	-10.7915
占公司	-10.7917
接入	-10.7919
协商	-10.7919
5.2%	-10.7922
初始	-10.7922
签	-10.7923
茂	-10.7925
电缆	-10.7926
0.43	-10.7926
商业模式	-10.7928
招聘	-10.793
4.9%	-10.793
付款	-10.7931
读	-10.7932
080	-10.7932
同花顺	-10.7935
线路	-10.7935
1.21	-10.7935
基数	-10.7937
▁......	-10.7939
全产业链	-10.7939
CEO	-10.7949
1.91	-10.7949
受让	-10.795
95%	-10.7951
则是	-10.7952
PageText	-10.7955
组建	-10.7958
数字经济	-10.796
基金的	-10.7961
▁值	-10.7962
较好的	-10.7963
bps	-10.7964
前三	-10.7966
主承销商	-10.7973
放弃	-10.7977
CI	-10.7977
儿童	-10.7978
收跌	-10.7979
宣	-10.7981
0.12	-10.7981
570	-10.7981
政策的	-10.7982
7.3%	-10.7986
1.19	-10.7987
本年度	-10.7987
亚太	-10.7988
划分	-10.7988
有力	-10.7989
电站	-10.7993
4.80	-10.7996
更好的	-10.7997
。2017	-10.8
133	-10.8002
催化剂	-10.8002
>>	-10.8003
0.56	-10.8004
▁美	-10.8005
小麦	-10.8008
▁0.30	-10.8009
期末余额	-10.8011
所在	-10.8011
0.88	-10.8012
多元	-10.8012
0.54	-10.8013
晚	-10.8017
▁16%	-10.8018
5.3%	-10.802
0.67	-10.8021
状	-10.8024
0.27	-10.8024
光大	-10.8025
at	-10.8025
▁偿债能力	-10.8025
亿港元	-10.8027
撰写	-10.8031
适用于	-10.8032
监	-10.8034
直接或间接	-10.8036
一览	-10.8041
尽快	-10.8044
无人机	-10.8048
收报	-10.8052
淘汰	-10.8054
初期	-10.8055
音	-10.8057
0.26	-10.8059
较少	-10.806
▁104	-10.8061
▁动	-10.8061
0.98	-10.8063
制造商	-10.8063
0.72	-10.8066
掉	-10.8066
▁香港	-10.8075
最为	-10.8079
15:00	-10.8079
第三季度	-10.808
嘉实	-10.8081
▁0.07	-10.8081
103	-10.8082
丰富的	-10.8082
美国经济	-10.8082
4.25	-10.8083
▁速动比率	-10.8086
▁109	-10.8087
139	-10.8088
安全生产	-10.8089
华夏	-10.8089
研发中心	-10.8092
分部	-10.8093
▁徐	-10.8094
▁本报告所载的资料	-10.8095
2.99	-10.8096
1.80	-10.8096
▁02	-10.8096
ment	-10.8099
事业	-10.8102
一定的	-10.8108
755	-10.8111
375	-10.8114
am	-10.8115
重大事项	-10.8115
本协议	-10.8116
铜价	-10.8119
亮点	-10.8119
单元	-10.812
基建投资	-10.812
现代化	-10.812
2.21	-10.8123
解除限售	-10.8124
:2020	-10.8126
一下	-10.8127
基金合同	-10.8128
示	-10.813
中游	-10.813
百川资讯	-10.813
0.14	-10.8133
▁其他流动负债	-10.8133
0.62	-10.8136
117	-10.8137
▁on	-10.8139
商标	-10.814
届时	-10.8142
发行对象	-10.8142
淡	-10.8143
CO	-10.8143
证券投资基金	-10.8144
贵州茅台	-10.8145
050100150200250	-10.8146
聘任	-10.8146
is	-10.8146
发送	-10.815
0.66	-10.8152
确定的	-10.8156
▁The	-10.8156
恒生	-10.8158
460	-10.8159
1.07	-10.8159
0.21	-10.816
饮料	-10.816
产品质量	-10.816
她	-10.8161
的投资者	-10.8162
SR	-10.8162
缩减	-10.8163
电子商务	-10.8164
虎	-10.8164
0.59	-10.8164
文旅	-10.8167
在建	-10.8169
▁用	-10.817
公众	-10.8172
万得	-10.8172
1.29	-10.8173
股股票	-10.8175
特朗普	-10.8182
。2019	-10.8182
浪	-10.8186
领先的	-10.8187
十五	-10.8188
走势图	-10.8189
以前	-10.8189
不高	-10.8191
0.29	-10.8192
培	-10.8192
急	-10.8192
巨潮资讯网	-10.8193
输出	-10.8196
2.98	-10.8197
157	-10.8198
195	-10.8199
▁	-10.8202
盈利水平	-10.8203
翻	-10.8206
發	-10.8207
育	-10.8207
24%	-10.821
0.53	-10.8212
▁11%	-10.8212
华东地区	-10.8212
▁as	-10.8212
▁FY	-10.8215
185	-10.8216
2.80	-10.8216
國	-10.8218
否则	-10.8219
需注明出处为	-10.8219
0.78	-10.8219
恒生指数	-10.822
监管部门	-10.822
旧	-10.822
4.30	-10.8222
0.18	-10.8226
7.7%	-10.8228
燃	-10.8229
▁點	-10.8229
0.23	-10.8233
1.75	-10.8233
▁re	-10.8234
1.23	-10.8234
担忧	-10.8234
1.09	-10.8235
可供出售金融资产	-10.8237
的生产	-10.8237
已成为	-10.8238
天猫	-10.8239
提到	-10.824
且不得对本报告进行任何有悖原意的	-10.8241
中国的	-10.8242
投资评级	-10.8243
禁	-10.8244
岗	-10.8248
TF	-10.8249
0.63	-10.8249
融券余量	-10.8249
自由	-10.825
平安证券研究所	-10.8251
各国	-10.8251
向下	-10.8252
合格	-10.8255
经济复苏	-10.8256
370	-10.8259
规格	-10.8259
平均价	-10.826
批复	-10.8261
确	-10.8263
莫	-10.8265
▁137	-10.8266
港口库存	-10.8268
日在	-10.827
▁4.3	-10.8272
26%	-10.8272
▁其他应收款	-10.8273
步伐	-10.8273
5.1%	-10.8273
0002	-10.8274
虹	-10.8274
0.57	-10.8276
▁铜	-10.8277
行政处罚	-10.8277
城区	-10.828
▁0.40	-10.8281
▁億元	-10.8282
各自	-10.8283
部件	-10.8286
▁0.75	-10.8289
孔	-10.8289
会有	-10.829
▁理	-10.829
9%	-10.8291
在此	-10.8291
1.12	-10.8292
澳门	-10.8293
il	-10.8295
少数	-10.8297
轨道交通	-10.8299
0.76	-10.83
肿瘤	-10.83
▁103	-10.8301
比例为	-10.8302
独家	-10.8302
采掘	-10.8303
0.86	-10.8303
当中	-10.8307
家用电器	-10.8308
达到了	-10.831
本次会议	-10.831
合资	-10.8312
冶炼	-10.8314
0.74	-10.8315
3.05	-10.8315
耀	-10.8315
将迎来	-10.8316
▁138	-10.8318
9.8	-10.8318
2.38	-10.8319
净利润为	-10.8321
0.77	-10.8322
22%	-10.8322
0.61	-10.8324
▁本报告版权仅为本公司所有	-10.8325
中小板	-10.8326
国债期货	-10.8329
▁东	-10.8332
1.30	-10.8332
汽油	-10.8333
的价值	-10.8333
同意公司	-10.8334
充电桩	-10.8335
扩容	-10.8335
期间费用率	-10.8342
中科	-10.8342
需求量	-10.8346
500.00	-10.8347
▁股票	-10.8348
董事会会议	-10.835
▁应付账款	-10.8351
追	-10.8352
伦敦	-10.8352
177	-10.8352
稳定增长	-10.8354
商品房	-10.8354
兆	-10.8356
▁0024	-10.8357
116	-10.8357
23%	-10.8359
优于	-10.8362
电解铝	-10.8362
这次	-10.8362
资金流向	-10.8363
细分领域	-10.8363
公司未来	-10.8364
卓	-10.8364
下方	-10.8365
节后	-10.8367
的成本	-10.8368
的收入	-10.8368
▁123	-10.8369
148	-10.8371
2.33	-10.8372
0.91	-10.8372
垄断	-10.8373
肥	-10.8374
上周五	-10.8375
三季报	-10.8376
谁	-10.8383
▁0.13	-10.8383
目前已	-10.8387
4.40	-10.8387
近三年	-10.839
吧	-10.8392
损	-10.8393
7,000	-10.8397
1.45	-10.8402
投资咨询	-10.8402
癿	-10.8403
零售额	-10.8403
388	-10.8406
中国证券监督管理委员会	-10.8408
同比提升	-10.8409
强大的	-10.8411
▁5.0	-10.8417
123	-10.8417
1.01	-10.8417
1.11	-10.8418
助推	-10.842
经营范围	-10.842
击	-10.8421
中国人民银行	-10.8424
▁研究助理	-10.8426
▁非流动资产	-10.843
▁0.12	-10.843
▁13%	-10.8431
本文	-10.8432
阴	-10.8434
0.92	-10.8437
控制权	-10.8438
诊股	-10.8439
论	-10.8439
概念股	-10.844
▁0.09	-10.8443
本激励计划	-10.8445
还在	-10.8446
iFinD	-10.8448
失业率	-10.8449
拿地	-10.845
2.88	-10.845
月初	-10.8451
广大	-10.8451
磊	-10.8452
划	-10.8452
0.13	-10.8453
创下	-10.8453
消耗	-10.8453
下降至	-10.8457
0.16	-10.8462
成绩	-10.8462
浙商证券研究所	-10.8463
80.00	-10.8463
出口量	-10.8466
3.33	-10.8468
▁研	-10.847
艺	-10.8472
1%,	-10.8475
所有本报告中使用的商标	-10.8476
充裕	-10.8478
2.28	-10.848
6.2%	-10.8482
询价	-10.8484
5.8%	-10.8485
预计未来	-10.8491
朝	-10.8494
2.86	-10.8495
132	-10.8497
2.42	-10.8502
理想	-10.8503
760	-10.8505
要点	-10.8506
遵循	-10.8506
的调整	-10.8506
介入	-10.8506
股权结构	-10.8508
▁投资活动现金流	-10.8509
7)	-10.851
买方	-10.8512
3.70	-10.8512
0.71	-10.8516
▁赵	-10.8518
0.99	-10.8519
▁Inc	-10.8519
0.96	-10.8519
群众	-10.8521
小微企业	-10.8522
2.48	-10.8523
178	-10.8526
本所	-10.8527
找	-10.8531
醇	-10.8531
装饰	-10.8532
0.69	-10.8533
189	-10.8536
相继	-10.8539
编辑	-10.8539
印刷	-10.8541
5.20	-10.8547
本所律师	-10.8549
追求	-10.855
施	-10.8551
扣	-10.8556
355	-10.8557
中华	-10.8557
0.84	-10.8565
发布公告	-10.8566
▁电	-10.8566
182	-10.8566
奶	-10.8566
缺	-10.8567
5.9%	-10.857
▁报	-10.8572
我们对	-10.8574
造纸	-10.8574
病毒	-10.8574
股指期货	-10.8575
3.01	-10.8576
122	-10.8582
。2021	-10.8583
↑	-10.8585
2.36	-10.8589
2.78	-10.8592
2.40	-10.8593
以往	-10.8594
对外担保	-10.8595
再生	-10.8595
1.31	-10.8596
▁第二	-10.8597
2.32	-10.8598
完整的	-10.8601
手游	-10.8602
780	-10.8602
无线	-10.8604
晟	-10.8604
参股	-10.8604
▁PMI	-10.8607
345	-10.8608
希	-10.8612
购房	-10.8612
SI	-10.8613
相当于	-10.8614
▁2.9	-10.8614
扶贫	-10.8615
乘	-10.8615
▁宏观	-10.8617
2.34	-10.8617
▁112	-10.8619
4.10	-10.8622
▁not	-10.8626
转化	-10.8629
196	-10.8631
国家级	-10.8632
3.08	-10.8632
鸡蛋	-10.8633
原料药	-10.8634
3.31	-10.8635
抓	-10.8635
增值	-10.8638
▁118	-10.8639
原油价格	-10.8639
有关的	-10.864
补充流动资金	-10.864
评估基准日	-10.8642
核实	-10.8642
▁朱	-10.8642
2.37	-10.8643
27%	-10.8643
其在	-10.8643
/20	-10.8643
▁102	-10.8645
扩	-10.8645
生产和销售	-10.8645
▁重庆	-10.8646
0.31	-10.8646
互联网金融	-10.8648
假	-10.8651
贴	-10.8652
扶持	-10.8654
165	-10.8655
附注	-10.8657
市场价	-10.866
603	-10.8662
伊朗	-10.8662
本项目	-10.8662
USD	-10.8663
规模化	-10.8663
2.68	-10.8664
NA	-10.8667
179	-10.8668
东风	-10.8668
交易日	-10.8668
會	-10.8669
增多	-10.867
▁研究员	-10.867
sh	-10.867
投标	-10.867
169	-10.8671
堆	-10.8672
▁0.11	-10.8672
青海	-10.8672
0.73	-10.8672
3-5	-10.8673
多单	-10.8673
年第一次临时股东大会	-10.8673
▁115	-10.8676
国防	-10.8678
善	-10.868
符合预期	-10.8682
促使	-10.8692
复工	-10.8693
0.94	-10.8696
历年	-10.8696
0.82	-10.8696
跟随	-10.8696
0.17	-10.8704
整体来看	-10.8704
滞后	-10.8706
旗	-10.8706
高新技术企业	-10.8707
▁0.60	-10.8707
2.64	-10.8708
付费	-10.8709
ec	-10.8709
0.81	-10.8711
TA	-10.8712
8.5%	-10.8714
技术研发	-10.8716
1.16	-10.8718
环球	-10.8718
▁股东名称	-10.8718
存续	-10.8719
去库存	-10.872
环境保护	-10.8723
与其	-10.8723
上升至	-10.8724
等问题	-10.8725
670	-10.8725
概述	-10.8727
2.39	-10.8729
签订了	-10.8729
4,000	-10.873
公告称	-10.8732
委员	-10.8734
100.00	-10.8734
稿	-10.8735
400.00	-10.8736
中金公司	-10.874
进行调整	-10.8741
555	-10.8742
轨	-10.8743
行业整体	-10.8743
。2022	-10.8744
2.46	-10.8746
十大	-10.875
▁Z	-10.875
2.49	-10.8751
全线	-10.8752
持有公司股份	-10.8752
2.24	-10.8753
府	-10.8754
研报	-10.8755
中国联通	-10.8756
单季度	-10.8757
杜	-10.8758
只要	-10.8759
纠纷	-10.876
第一个	-10.876
楼市	-10.8761
发展规划	-10.8761
▁0.35	-10.8761
210	-10.8761
岭	-10.8762
TMT	-10.8766
01-	-10.8766
适度	-10.8766
主管	-10.8769
2.56	-10.8769
知名	-10.8769
我们预计公司	-10.8769
3.28	-10.8769
0.89	-10.8771
邀请	-10.8772
卓创资讯	-10.8773
改进	-10.8777
高质量	-10.8778
0100200300400500	-10.8781
是中国	-10.8783
▁report	-10.8783
2.47	-10.8786
▁金融工程	-10.8788
1.18	-10.8789
▁0.14	-10.8789
6.4%	-10.879
。2020	-10.879
▁0.74	-10.879
仍需	-10.8791
年第	-10.8792
TC	-10.8793
2.44	-10.8795
208	-10.8796
安防	-10.8797
融券偿还	-10.8797
汽车零部件	-10.8797
负面	-10.8798
等相关	-10.8799
▁姓名	-10.8802
应用场景	-10.8802
岩	-10.8803
社交	-10.8805
2.31	-10.8805
的话	-10.8806
4.60	-10.8808
2.43	-10.8808
0.79	-10.8808
2.67	-10.8811
-15%	-10.8812
2.83	-10.8813
目前公司	-10.8815
與	-10.8816
步入	-10.8819
▁159	-10.8819
之路	-10.8821
澳洲	-10.8821
2.53	-10.8823
6.30	-10.8824
充	-10.8825
十三	-10.8826
▁亿吨	-10.8827
录	-10.8829
乳	-10.8829
590	-10.883
▁上述	-10.8831
▁any	-10.8832
错	-10.8832
0.87	-10.8832
119	-10.8834
半年报	-10.8836
结束后	-10.8841
配股	-10.8841
财务指标	-10.8841
▁资本公积	-10.8843
2.58	-10.8844
全球经济	-10.8845
142	-10.8849
咨询独立投资顾问	-10.885
0.11	-10.885
年度报告	-10.885
尝试	-10.8851
▁17%	-10.8852
有利	-10.8852
清单	-10.8853
3.50	-10.8854
重心	-10.8855
回购股份	-10.8857
▁各项声明请参见报告尾页	-10.8858
2.66	-10.886
不良	-10.8861
3.90	-10.8862
减仓	-10.8862
▁期末	-10.8862
▁SW	-10.8863
CFR	-10.8863
农药	-10.8864
衍生品	-10.8864
2.19	-10.8865
迭代	-10.8869
传导	-10.8871
下一步	-10.8874
航线	-10.8874
2.72	-10.8874
开业	-10.8875
0.97	-10.8875
缩小	-10.8875
溪	-10.8876
6.25	-10.8877
▁通信	-10.8877
疫情影响	-10.8878
2.26	-10.8882
1.28	-10.8883
146	-10.8884
镜	-10.8884
▁当前	-10.8886
158	-10.8888
004	-10.889
2.76	-10.8892
现金流量	-10.8892
进军	-10.8892
得以	-10.8895
↓	-10.8896
3.04	-10.89
功	-10.89
非经常性损益	-10.89
0.93	-10.89
3.18	-10.8901
日上午	-10.8907
有望在	-10.8909
准确性	-10.8911
▁J	-10.8913
▁款	-10.8914
企业会计准则第	-10.8915
▁0.17	-10.8916
▁07	-10.8916
1.55	-10.8919
0.83	-10.892
筑	-10.8922
柜	-10.8922
2.41	-10.8923
▁何	-10.8924
pp	-10.8924
▁Email	-10.8925
▁投资评级说明	-10.8925
经营性	-10.8926
象	-10.8929
的压力	-10.8932
事故	-10.8932
▁0.16	-10.8933
2.18	-10.8934
消费量	-10.8936
财富管理	-10.8939
2.62	-10.8941
选取	-10.8943
三级	-10.8944
盖	-10.8944
强烈	-10.8944
公司以	-10.8944
网络安全	-10.8946
近一年	-10.8946
3.35	-10.8947
报告的一部分	-10.8947
▁0.18	-10.895
货源	-10.8951
验收	-10.8954
EV	-10.8954
2.87	-10.8954
依照	-10.8955
桂	-10.8956
国投安信期货	-10.8956
的建设	-10.8956
刊发的	-10.8957
6.20	-10.8957
中小投资者	-10.8959
反映了	-10.896
3,000	-10.8964
退市	-10.8966
▁日本	-10.8968
亏	-10.8969
1.17	-10.897
研究团队	-10.897
推行	-10.8971
微软	-10.8972
369	-10.8973
▁0.70	-10.8975
2.84	-10.8977
6.6%	-10.8978
在法律许可的情况下	-10.8979
▁117	-10.8979
2.73	-10.8986
备查文件	-10.8987
收集	-10.8988
每月	-10.8991
1.36	-10.8991
8.50	-10.8992
亲	-10.8994
440	-10.8995
3.65	-10.8996
2.61	-10.8997
pcts	-10.8997
消除	-10.8998
▁股价	-10.8999
热卷	-10.8999
安全性	-10.9002
▁在建工程	-10.9003
3.85	-10.9007
保持稳定	-10.9008
厚	-10.9009
横	-10.901
1.70	-10.9012
ro	-10.9013
大宗交易	-10.9013
2.69	-10.9013
逐	-10.9014
▁03	-10.9014
准确性及完整性不作任何保证	-10.9015
近年	-10.9016
152	-10.9016
28%	-10.9019
激发	-10.9021
人力资源	-10.9025
回报率	-10.9025
3.02	-10.9025
集采	-10.9025
经营活动	-10.9027
局面	-10.903
沿海	-10.903
1.33	-10.9031
携手	-10.9033
▁2022-01	-10.9033
2.96	-10.9035
每周	-10.9036
新业务	-10.9037
3.45	-10.9037
秋	-10.9038
技术有限公司	-10.904
慢	-10.9045
一起阅读	-10.9046
▁免责声明和披露	-10.9047
竞争格局	-10.9047
票同意	-10.9048
以内	-10.9048
本次重大资产重组	-10.9049
690	-10.905
年以上	-10.9051
以及分析师	-10.9052
大模型	-10.9052
▁18%	-10.9053
私人	-10.9054
凤	-10.9057
183	-10.9059
66.	-10.906
本報告	-10.9062
2.63	-10.9063
1.52	-10.9064
PCB	-10.9065
2.77	-10.9066
▁杭州	-10.907
▁0.19	-10.9072
2.79	-10.9072
～	-10.9072
回款	-10.9072
1.32	-10.9073
9.50	-10.9074
下称	-10.9075
节点	-10.9076
2.74	-10.9076
GWh	-10.9078
大幅下滑	-10.9079
▁董事	-10.9081
前十	-10.9082
▁CNY	-10.9083
基本持平	-10.9084
变化情况	-10.9084
1.65	-10.9084
490	-10.9084
▁每股指标	-10.9085
▁4,3	-10.9086
2.92	-10.9086
外延	-10.9087
出厂价	-10.9089
商用车	-10.9091
▁八	-10.9091
▁Equity	-10.9091
最低价	-10.9093
▁经营活动现金流	-10.9093
昆明	-10.9095
题材	-10.9096
的业绩	-10.9097
2.82	-10.9098
接下来	-10.9101
▁易	-10.9101
亚马逊	-10.9102
6.80	-10.9102
1998	-10.9103
专业化	-10.9104
国海证券研究所	-10.9105
相对沪深	-10.911
参照	-10.911
1.38	-10.9112
应用于	-10.9115
2.52	-10.912
虚拟	-10.9122
高景气	-10.9124
163	-10.9126
▁0.45	-10.9127
▁请阅读最后评级说明和重要声明	-10.9128
绝	-10.9131
▁份	-10.9133
▁年中国	-10.9135
策略周报	-10.9137
打破	-10.9137
3.06	-10.9138
的一个	-10.9138
Info	-10.914
;(3)	-10.9142
防止	-10.9142
▁股市场	-10.9143
3.16	-10.9144
声明是	-10.9144
二线	-10.9144
3.12	-10.9145
夫	-10.9145
加权	-10.9155
羽	-10.9156
北向资金	-10.9157
济南	-10.9158
好于	-10.9158
最高的	-10.9159
日召开	-10.916
4.50	-10.9162
本次交易完成后	-10.9163
1%。	-10.9166
萎缩	-10.9166
预计将	-10.9167
做多	-10.9167
基层	-10.9171
以公允价值计量	-10.9172
关闭	-10.9173
赢	-10.9174
的项目	-10.9175
3.17	-10.9178
协助	-10.9178
2.97	-10.9178
2.93	-10.9178
640	-10.918
资本化	-10.9181
相较于	-10.9184
▁0.27	-10.9186
持有公司	-10.9188
2.54	-10.919
样	-10.9191
+4	-10.9191
更好地	-10.9192
系统的	-10.9193
不对您构成任何投资建议	-10.9193
长三角	-10.9193
宋	-10.9195
服务的	-10.9196
是国内	-10.9198
▁港股	-10.9199
减值准备	-10.9199
大陆	-10.9202
15:	-10.9203
8)	-10.9203
2.59	-10.9203
恒指	-10.9204
Author	-10.9204
上下	-10.9205
稳定的	-10.9205
5%;	-10.9207
获得了	-10.9207
建造	-10.9209
2.05	-10.921
缓	-10.921
▁10,000	-10.9213
▁4,0	-10.9214
3.13	-10.9215
2.81	-10.9216
肯定	-10.9217
all	-10.9221
公司作为	-10.9221
▁0.36	-10.9223
1.34	-10.9223
自主品牌	-10.9225
建筑材料	-10.9227
容易	-10.9227
必要	-10.9228
1-8	-10.923
▁第三	-10.9231
▁114	-10.9231
3.14	-10.9233
其次	-10.9235
2.51	-10.9237
▁维持	-10.924
7.20	-10.9241
该项	-10.9242
响应	-10.9242
5.25	-10.9242
信息安全	-10.9243
巨大的	-10.9243
▁4,6	-10.9244
▁0.28	-10.9245
143	-10.9246
民企	-10.9247
欢迎	-10.9247
▁另外	-10.9248
全体	-10.9248
▁125	-10.9249
异常	-10.9249
▁年一季度	-10.9249
磨	-10.9251
▁非流动负债	-10.9251
4.15	-10.9252
0,000,000.00	-10.9253
2.25	-10.9254
赔偿	-10.9254
383	-10.9254
167	-10.9254
▁O	-10.9255
合伙企业	-10.9257
技术和	-10.9258
概率	-10.9258
游客	-10.9258
上月	-10.9258
▁年全年	-10.9258
冻结	-10.926
搭载	-10.926
870	-10.9262
菲	-10.9263
交易的	-10.9264
及增速	-10.9265
天然	-10.9266
688	-10.9266
▁3.6	-10.9267
融资融券	-10.9269
1.37	-10.9269
国债收益率	-10.9272
为核心	-10.9275
3.24	-10.9276
3.29	-10.9276
空气	-10.9278
3.27	-10.9279
抵	-10.9282
不构成投资建议	-10.9283
ong	-10.9284
报收于	-10.9284
人民幣	-10.9285
▁0.26	-10.9288
同业竞争	-10.9288
生物医药	-10.9288
2.89	-10.9289
▁119	-10.929
温和	-10.9291
7.00	-10.9292
1.67	-10.9293
个性化	-10.9294
规律	-10.9294
投资管理	-10.9295
2.94	-10.9296
就会	-10.9297
重回	-10.9297
弹	-10.9297
yi	-10.9298
归属	-10.9299
▁0.23	-10.9301
3.11	-10.9302
(2023	-10.9303
另一	-10.9307
切入	-10.9307
:2017	-10.9308
清洁能源	-10.931
1.24	-10.9311
佛山	-10.9311
3.03	-10.9313
其他综合收益	-10.9315
20.00	-10.9315
跃	-10.9316
分离	-10.9317
,%)	-10.9318
修订稿	-10.9318
▁4,5	-10.932
开发商	-10.9323
50,000.00	-10.9323
▁5.1	-10.9325
增速放缓	-10.9325
▁2006	-10.9325
▁.....	-10.9328
我们将	-10.9329
588	-10.9329
主要产品	-10.933
2.20	-10.933
▁0.33	-10.9331
争取	-10.9332
1.39	-10.9332
的战略	-10.9332
请阅读最后一页信息披露和重要声明	-10.9334
近几年	-10.9336
系统集成	-10.9337
176	-10.9338
33%	-10.934
精品	-10.9343
▁日起	-10.9343
大宗	-10.9344
8,000	-10.9344
5.60	-10.9344
固定收益	-10.9344
马来西亚	-10.9344
衣	-10.9345
1.43	-10.9345
3.21	-10.9347
稳步推进	-10.9347
6,000	-10.9348
触发	-10.9348
2.57	-10.9349
58.	-10.9349
2.71	-10.935
▁m	-10.9351
炒作	-10.9352
训练	-10.9355
2.29	-10.9357
3.95	-10.9358
价格下跌	-10.9359
管理费用率	-10.9359
有效性	-10.9362
拓宽	-10.9363
1.85	-10.9363
不对任何人因使用本报告中的任	-10.9368
6.40	-10.937
确实	-10.937
2.91	-10.9374
▁年前三季度	-10.9375
加快推进	-10.9376
一体	-10.9384
美团	-10.9386
0.06%	-10.9388
▁评级说明	-10.9391
衰退	-10.9391
▁型	-10.9393
自有资金	-10.9393
银河证券	-10.9394
3.07	-10.9396
谢	-10.9398
3.26	-10.9398
3.22	-10.9399
主要由于	-10.9402
▁0.5%	-10.9403
由公司	-10.9404
1.26	-10.9405
离职	-10.9407
浆	-10.9412
的估值	-10.9413
等产品	-10.9414
362	-10.9416
iPhone	-10.9417
新低	-10.9417
高频	-10.9418
聚酯	-10.9418
污水处理	-10.9421
149	-10.9424
SCP	-10.9424
GB	-10.9425
广发证券	-10.9427
一季报	-10.9427
▁PTA	-10.9428
处在	-10.9428
国产化	-10.9428
162	-10.9429
1.42	-10.943
配额	-10.9431
若干	-10.9431
▁行业投资评级	-10.9432
工业互联网	-10.9432
288	-10.9432
1.90	-10.9433
小型	-10.9433
立足	-10.9434
电脑	-10.9436
▁0.24	-10.9437
非银金融	-10.9441
顿	-10.9443
济	-10.9443
先行	-10.9445
耗	-10.9447
▁35%	-10.9447
▁700	-10.9449
经营情况	-10.945
800.00	-10.9451
5.80	-10.9452
▁10.0	-10.9453
▁南京	-10.9455
1.44	-10.9456
▁4,2	-10.9456
4.01	-10.9459
偏紧	-10.9463
绝对收益	-10.9464
129	-10.9467
较弱	-10.9468
脑	-10.9468
112	-10.947
386	-10.947
平均水平	-10.947
▁350	-10.9471
▁在任何情况下	-10.9471
華	-10.9473
此报告	-10.9476
升贴水	-10.9477
链接	-10.9477
3%,	-10.948
钢铁行业	-10.9482
3.09	-10.9483
可再生能源	-10.9483
可控	-10.9483
153	-10.9483
所得	-10.9484
勤	-10.9485
公司官网	-10.9486
▁4,4	-10.9486
▁0.22	-10.9493
▁0.80	-10.9494
福利	-10.9496
集中在	-10.9498
▁0.29	-10.9498
1.41	-10.9499
▁CPI	-10.9499
南通	-10.9501
的人	-10.9503
▁116	-10.9503
▁注册资本	-10.9504
根据公司	-10.9505
集装箱	-10.9505
3.38	-10.9506
拍卖	-10.9507
上市后	-10.9511
温度	-10.9511
▁四川	-10.9514
前列	-10.9515
▁0.73	-10.9515
铁矿	-10.9516
颖	-10.9517
新车	-10.9518
纺	-10.9518
1/2	-10.9522
1.48	-10.9523
▁0.38	-10.9524
4.05	-10.9525
3.55	-10.9526
▁我国	-10.9528
;2、	-10.9529
ppt	-10.9529
有望持续	-10.9529
为什么	-10.953
主营	-10.9531
音乐	-10.9534
378	-10.9537
即可	-10.9538
报酬	-10.9539
每天	-10.9541
6.60	-10.9541
博士	-10.9541
似乎	-10.9542
3.23	-10.9544
推出了	-10.9546
警	-10.9547
保本	-10.9548
企业会计准则	-10.9548
远期	-10.9552
藏	-10.9556
192	-10.9556
085	-10.9558
债权人	-10.9561
招商银行	-10.9561
全球化	-10.9561
▁盈利预测	-10.9562
▁-0.2	-10.9562
中间	-10.9563
一路	-10.9564
寿险	-10.9565
税务	-10.9566
一步	-10.9568
是一种	-10.9569
第一期	-10.9572
主要用于	-10.9573
平价	-10.9574
被投资单位	-10.9574
▁华泰期货	-10.9577
▁限公司	-10.9577
公司为	-10.9579
/1/1	-10.9579
便利	-10.9582
滚动	-10.9584
6~12	-10.9588
▁第一百	-10.9588
行业景气度	-10.9589
公允	-10.9589
▁0.72	-10.9589
柴油	-10.9591
1.27	-10.9592
▁127	-10.9592
或以任何侵犯本公司版权的其他方式	-10.9593
3.68	-10.9594
1.95	-10.9594
ri	-10.9595
震	-10.9597
▁看好	-10.9598
期货价格	-10.9598
本公司对本报告所含信息可在	-10.96
▁this	-10.9603
▁策略研究	-10.9605
中兴通讯	-10.9607
动作	-10.9607
1-4	-10.9608
感染	-10.9608
担心	-10.9609
36.	-10.9609
3.34	-10.9609
3.88	-10.961
并无	-10.9612
et	-10.9612
4.70	-10.9612
▁0.37	-10.9613
尺寸	-10.9618
沈	-10.9619
1.56	-10.9619
主持	-10.9619
确认的	-10.962
福建省	-10.9621
4.35	-10.9622
纯碱	-10.9623
098	-10.9623
简介	-10.9624
死	-10.9625
来自于	-10.9625
大多	-10.9625
化解	-10.9627
的整体	-10.9628
供货	-10.9629
票面利率	-10.9634
456	-10.9637
授信	-10.9639
决策程序	-10.964
365	-10.964
下同	-10.9641
0.08%	-10.9641
主任	-10.9642
比价	-10.9643
竞	-10.9645
点评报告	-10.9646
▁0.34	-10.9647
1.46	-10.965
也将不会因本报告中的具体推荐意见	-10.965
29%	-10.9652
明细	-10.9652
集团公司	-10.9652
600.00	-10.9654
浮	-10.9654
必要的	-10.9654
现状	-10.9657
等方面的	-10.9659
▁在法律许可的情况下	-10.9661
-0.1	-10.9662
东兴证券研究所	-10.9662
LPR	-10.9663
4.29	-10.9664
投资项目	-10.9666
浪潮	-10.9668
引擎	-10.9669
4.55	-10.9674
窗口	-10.9675
情况说明	-10.9677
分项	-10.9681
玩	-10.9682
位列	-10.9683
。3)	-10.9684
han	-10.9684
涨幅居前	-10.9686
▁5.2	-10.9687
垂直	-10.9689
1800	-10.9692
的事项	-10.9694
2.02	-10.9695
1.68	-10.9697
凌	-10.97
▁长期投资	-10.97
生成	-10.9701
▁129	-10.9704
明星	-10.9704
3.19	-10.9705
0.07%	-10.9705
▁0.49	-10.9706
AT	-10.9707
720	-10.9707
气体	-10.9708
的应用	-10.971
开通	-10.9711
3.36	-10.9711
均在	-10.9712
公司总股本	-10.9712
曾任	-10.9713
新房	-10.9713
标杆	-10.9715
▁类别	-10.9718
▁0.48	-10.9718
5.75	-10.9718
一份	-10.9719
3.32	-10.9722
▁0.42	-10.9725
151	-10.9725
▁4,9	-10.9728
保密	-10.9728
▁7、	-10.9731
1.51	-10.9731
高科	-10.9733
意外	-10.9733
公司治理	-10.9736
会上	-10.9738
空单	-10.974
按年	-10.9742
菜油	-10.9742
长春	-10.9744
026	-10.9744
以上内容	-10.9747
紧密	-10.9747
MSCI	-10.9758
206	-10.9759
▁0.32	-10.9763
前瞻	-10.9765
1.58	-10.9765
1.54	-10.9771
系列产品	-10.9773
4.90	-10.9777
决	-10.978
尤其	-10.9781
谷歌	-10.9781
id	-10.9781
智慧城市	-10.9783
2.70	-10.9784
服务平台	-10.9784
或许	-10.9785
▁0.21	-10.979
16:	-10.979
以外的	-10.9791
3.58	-10.9795
吉利	-10.9796
▁2023-01	-10.9796
体量	-10.9796
172	-10.9799
评分	-10.98
态度	-10.98
的大	-10.9801
3.48	-10.9804
激励计划	-10.9805
旅客	-10.9806
打击	-10.9807
长安	-10.9807
触及	-10.9811
同时也	-10.9813
泵	-10.9813
3.52	-10.9814
540	-10.9814
限制性股票激励计划	-10.9814
投资风险	-10.9815
国家发改委	-10.9815
穿	-10.9815
1.88	-10.9816
新冠疫情	-10.9817
应用领域	-10.982
走出	-10.9823
173	-10.9824
▁145	-10.9826
折旧	-10.983
抓住	-10.9831
我们在	-10.9832
小组	-10.9836
各行业	-10.9837
这里	-10.9837
行业中	-10.9841
内外	-10.9843
808	-10.9846
引起	-10.9847
332	-10.9847
▁0.31	-10.9847
关联关系	-10.9848
万桶	-10.9849
2.00%	-10.985
射	-10.985
创始人	-10.9852
的走势	-10.9852
在今年	-10.9853
国产替代	-10.9855
将以	-10.9855
中介机构	-10.9856
未来的	-10.9856
5.40	-10.9856
49%	-10.9858
HS	-10.986
加权平均	-10.986
民用	-10.9861
▁辆	-10.9862
回避	-10.9862
所需	-10.9862
直销	-10.9865
▁0.55	-10.9866
运价	-10.9866
1.47	-10.9866
▁医药生物	-10.9868
▁安徽	-10.9868
这也是	-10.9871
版本	-10.9872
有关规定	-10.9874
207	-10.9874
节前	-10.9879
1.49	-10.9879
医药行业	-10.9881
驰	-10.9881
斤	-10.9886
1.62	-10.9887
4.08	-10.989
3.98	-10.9891
:2015	-10.9891
午后	-10.9892
SP	-10.9894
纪	-10.9897
该行	-10.9899
汽车电子	-10.9899
377	-10.9901
渐	-10.9902
翻版	-10.9904
19%	-10.9904
看来	-10.9905
两家	-10.9908
▁0.39	-10.9908
▁7.	-10.9908
数量为	-10.9908
▁GDP	-10.9909
回到	-10.9909
融资偿还	-10.9911
手术	-10.9912
全力	-10.9912
3.62	-10.9913
萨	-10.9913
4.28	-10.9913
访	-10.9913
MDI	-10.9914
打通	-10.9921
大幅上涨	-10.9922
3.42	-10.9925
基准指数	-10.9925
4.02	-10.9928
65%	-10.9929
深证成指	-10.993
兴业	-10.993
劲	-10.993
860	-10.9932
我们判断	-10.9934
報	-10.9934
早期	-10.9936
银行间	-10.9937
认	-10.9939
4.45	-10.994
评估报告	-10.994
55%	-10.994
交投	-10.9941
▁156	-10.9943
闻	-10.9943
上年同期	-10.9947
证券日报	-10.9949
▁EBIT	-10.9952
自然人	-10.9953
万达	-10.9954
劳动	-10.9955
3.54	-10.9957
回售	-10.9958
筛选	-10.9961
性的	-10.9961
2016201720182019	-10.9963
回避表决	-10.9967
127	-10.9968
建筑装饰	-10.9968
这也	-10.9971
▁分析师承诺	-10.9978
公司全资子公司	-10.9981
稳步增长	-10.9982
10.00	-10.9985
5.10	-10.9986
告	-10.9987
的特点	-10.9988
物业管理	-10.9988
147	-10.9989
520	-10.9989
Mysteel	-10.9992
1-10	-10.9992
市政	-10.9994
立即	-10.9996
投资额	-10.9997
4.16	-10.9997
▁0.46	-10.9998
增加所致	-11.0003
▁146	-11.0003
nm	-11.0006
主要原因是	-11.0007
投行	-11.0007
毛利率为	-11.001
两次	-11.0011
之日	-11.0011
一位	-11.0012
为主的	-11.0012
3.44	-11.0013
私	-11.0015
1.66	-11.0015
3.76	-11.0016
潘	-11.0018
中小股东	-11.0024
氛围	-11.0027
▁0.43	-11.0028
业绩符合预期	-11.0028
1.64	-11.003
维持高位	-11.003
经纪	-11.0031
企业所得税	-11.0032
可比	-11.0032
3.37	-11.0033
lu	-11.0034
生产商	-11.0034
1.61	-11.0034
▁4,7	-11.0037
市场整体	-11.0038
在全国	-11.0039
进展情况	-11.004
3.56	-11.004
原材料价格	-11.0041
3.64	-11.0041
339	-11.0042
供给侧改革	-11.0043
▁0.47	-11.0043
的全部	-11.0045
可靠性	-11.0045
势头	-11.0047
stocke	-11.0048
▁4,8	-11.0048
占总	-11.0048
另	-11.005
发生任何变更	-11.005
带来了	-11.0052
4.12	-11.0054
TP	-11.0055
试行	-11.0056
3.39	-11.0057
民生银行	-11.0059
▁日收盘价	-11.006
彭	-11.006
4.85	-11.006
出海	-11.0063
帝	-11.0067
盟	-11.0069
1.82	-11.0069
矛盾	-11.0071
1.78	-11.0071
回购注销	-11.0072
▁比	-11.0073
居住	-11.0073
日线	-11.0074
-50	-11.0075
1.76	-11.0076
▁SECURITIES	-11.0077
大额	-11.0078
+5	-11.0079
菌	-11.0081
更高的	-11.0082
357	-11.0082
4.00%	-11.0086
常规	-11.0086
ex	-11.0088
1.98	-11.0089
网易	-11.0089
的净利润	-11.0091
2.06	-11.0093
▁134	-11.0094
4.95	-11.0094
控制的	-11.0094
1.92	-11.0094
5.30	-11.0096
勒	-11.0096
因而	-11.0096
谢谢	-11.0096
透	-11.0097
▁股票简称	-11.0097
可转换公司债券	-11.0098
▁LED	-11.0098
6.75	-11.0098
4.65	-11.01
187	-11.0103
999	-11.0105
的目的	-11.0106
6.67	-11.0107
4.14	-11.0108
的实施	-11.0109
转发	-11.0109
1.72	-11.011
▁149	-11.0112
0.09%	-11.0112
受疫情影响	-11.0114
▁ROIC	-11.0114
4.18	-11.0116
实验	-11.0119
368	-11.0119
移动互联网	-11.0121
3.41	-11.0121
累	-11.0122
ABS	-11.0123
不包括	-11.0124
也可以	-11.0127
1.57	-11.0129
的实际	-11.013
轻工制造	-11.013
鞋	-11.0132
50%,	-11.0135
th	-11.0135
34%	-11.0136
________________	-11.0136
证券投资	-11.014
无论	-11.0141
棒	-11.0141
3.84	-11.0141
事实	-11.0142
毒	-11.0142
300.00	-11.0143
管理人员	-11.0146
▁交通运输	-11.0148
3.49	-11.0148
二十	-11.015
两会	-11.0153
日召开的	-11.0155
7.25	-11.0155
财务状况或需要	-11.0156
▁宁波	-11.0158
3.63	-11.0158
俄	-11.016
475	-11.0161
非标	-11.0163
哈尔滨	-11.0163
有望成为	-11.0163
3.47	-11.0164
围	-11.0165
会计政策	-11.0166
摩	-11.0168
单晶	-11.0172
十四	-11.0172
4.17	-11.0173
3.43	-11.0174
操作上	-11.0175
资产评估	-11.0176
▁0.52	-11.0176
SMM	-11.0176
▁0.41	-11.0176
161	-11.0177
海关	-11.0178
大多数	-11.0184
接触	-11.0184
攀升	-11.0185
141	-11.0186
3.92	-11.0189
准确性和完整性	-11.0191
创建	-11.0193
经公司	-11.0193
格力	-11.0195
3.46	-11.0196
770	-11.0197
媒	-11.0198
019	-11.0198
年限制性股票激励计划	-11.0198
▁0020	-11.0199
发行数量	-11.0199
3.78	-11.0199
3.72	-11.0202
840	-11.0204
1.69	-11.0205
中国电信	-11.0206
铭	-11.0206
华安证券研究所	-11.0209
得益于	-11.021
▁0.71	-11.0211
乙	-11.0211
▁本报告署名分析师	-11.0213
并注明出处为	-11.0215
坤	-11.0215
▁0.51	-11.0216
▁昨日	-11.0216
4.26	-11.0217
传统的	-11.0217
上下游	-11.0218
面值	-11.0219
公司年报	-11.022
正股	-11.0221
交互	-11.0222
中国大陆	-11.0222
1.63	-11.0223
三十	-11.0224
2.10	-11.0224
涂料	-11.0225
▁营收	-11.023
课	-11.023
305	-11.0232
重工	-11.0233
营业执照	-11.0233
3.69	-11.0233
▁133	-11.0234
资产配置	-11.0236
战略合作	-11.0236
3.99	-11.0236
▁螺纹钢	-11.0238
3.51	-11.0239
▁YOY	-11.024
机床	-11.0241
未经本公司事先书面授权	-11.0242
为客户提供	-11.0242
联系方式	-11.0242
▁5,000	-11.0244
0.15%	-11.0245
尾盘	-11.0247
杂	-11.0248
▁▍	-11.0248
产品销售	-11.025
年初至今	-11.025
3.61	-11.0253
3.82	-11.0254
3.57	-11.0256
▁请仔细阅读本报告末页声明	-11.0257
1.59	-11.0257
2.03	-11.0259
重卡	-11.026
举	-11.0261
确认为	-11.0263
193	-11.0263
价款	-11.0264
塞	-11.0265
0.30%	-11.0265
约占	-11.0266
焦点	-11.0267
周转	-11.0268
FOF	-11.0269
升值	-11.0269
稳健增长	-11.0269
百亿	-11.0271
碳纤维	-11.0271
公司拥有	-11.0271
方式制作任何形式的拷贝	-11.0272
4.22	-11.0272
276	-11.0272
本章程	-11.0273
▁U	-11.0274
钛	-11.0275
中东	-11.0276
周期性	-11.0277
4.24	-11.0277
3.66	-11.0277
(-1	-11.0277
作品	-11.0278
▁0025	-11.0278
继续保持	-11.0279
投融资	-11.0279
的结果	-11.028
▁现	-11.0281
四川省	-11.0281
公司经营	-11.0281
黑龙江	-11.0283
偏高	-11.0285
帆	-11.0285
紫	-11.0285
bo	-11.0286
保持在	-11.0286
仓库	-11.0286
二手房	-11.0287
创意	-11.0288
安徽省	-11.0288
碱	-11.0289
销售面积	-11.029
车间	-11.029
PD	-11.0291
途径	-11.0291
▁3.8	-11.0291
4.06	-11.0293
有望迎来	-11.0293
整治	-11.0294
32%	-11.0296
3.74	-11.0297
悲观	-11.0299
偏好	-11.0303
3.67	-11.0303
3.77	-11.0304
2%。	-11.0304
市净率	-11.0308
3.89	-11.0309
应付	-11.0314
主要有	-11.0314
3.87	-11.0315
落后	-11.0315
报告书	-11.0317
积极性	-11.0317
▁186	-11.0319
▁年我国	-11.0319
开支	-11.0319
▁0.65	-11.0321
1997	-11.0322
▁目标价	-11.0322
第八	-11.0323
3.96	-11.0323
杭	-11.0323
40.00	-11.0324
420	-11.0324
逆回购	-11.0325
抖音	-11.0325
的比重	-11.0327
▁0023	-11.0327
AL	-11.0328
要闻	-11.0329
相较	-11.033
5.15	-11.033
工作人员	-11.0331
TS	-11.0332
7.80	-11.0334
的所有	-11.0335
▁90%	-11.0337
366	-11.0339
舒	-11.0339
2,000.00	-11.0339
的经营	-11.034
实质	-11.0341
大客户	-11.0343
0500100015002000	-11.0345
395	-11.0346
1/3	-11.0348
TCL	-11.035
▁广发证券	-11.0352
▁4,1	-11.0354
营业外收入	-11.0355
根本	-11.0357
▁资本支出	-11.0358
输入	-11.0358
新增产能	-11.036
中兴	-11.0361
181	-11.0361
。2、	-11.0362
4.13	-11.0364
频率	-11.0366
远程	-11.0367
174	-11.0368
▁0.44	-11.0368
3.53	-11.0369
▁受	-11.0371
4.27	-11.0372
。(2)	-11.0373
3.79	-11.0374
4.11	-11.0377
0.01%	-11.0378
▁5.5	-11.0379
灾	-11.0379
公司独立董事	-11.0379
现阶段	-11.0379
持续改善	-11.038
▁0009	-11.038
1.86	-11.0381
ive	-11.0383
扣非归母净利润	-11.0385
本企业	-11.0386
1.00%	-11.0386
吸	-11.0387
068	-11.0389
幕	-11.0389
派息	-11.0391
620	-11.0391
电气设备	-11.0393
融资融券信息	-11.0394
甘	-11.0396
中银证券	-11.0398
评估值	-11.0399
完善的	-11.0399
363	-11.0401
净资产收益率	-11.0401
暴跌	-11.0402
ol	-11.0404
▁101	-11.0404
0.000	-11.0405
▁4.4	-11.0405
▁2005	-11.0406
QDII	-11.0408
154	-11.0409
382	-11.0411
▁孙	-11.0412
▁0.76	-11.0413
3.94	-11.0416
https	-11.0418
4.21	-11.0419
碳中和	-11.042
1.84	-11.042
可达	-11.042
成分	-11.0421
5.05	-11.0422
3.59	-11.0422
但仍	-11.0424
健康发展	-11.0424
财务总监	-11.0426
10,000	-11.0429
股股份	-11.043
4.44	-11.0431
弱于	-11.0432
付息	-11.0433
▁办公电话	-11.0433
公园	-11.0435
▁如果	-11.0436
家企业	-11.0436
需在允许的范围内使用	-11.0437
890	-11.0441
决议公告	-11.0442
wei	-11.0442
复产	-11.0443
它们	-11.0445
队伍	-11.0445
▁流动资产合计	-11.0448
遭遇	-11.0448
▁市值	-11.045
4.04	-11.045
的设计	-11.045
业主	-11.0451
▁NA	-11.0452
▁原油	-11.0454
不一致的投资决策	-11.0454
新时代	-11.0455
4.07	-11.0457
设备的	-11.0458
▁东吴证券研究所	-11.0459
持续性	-11.0459
柱	-11.046
企业合并	-11.0462
导航	-11.0462
▁with	-11.0464
中小盘	-11.0465
跨境电商	-11.0465
200,000	-11.0465
联营企业	-11.0466
▁0.77	-11.0467
平米	-11.0467
考察	-11.0467
均线	-11.0467
过度	-11.047
399	-11.0471
磅	-11.0472
坚定	-11.0473
竞价	-11.0473
备货	-11.0473
020	-11.0474
3.86	-11.0476
397	-11.0478
▁近年来	-11.0478
积极推进	-11.0479
3.81	-11.0481
期初	-11.0483
消防	-11.0485
1.53	-11.0486
7.60	-11.0487
独立性	-11.0489
3.83	-11.049
4.03	-11.0491
3.73	-11.0491
营业总收入	-11.0491
年中国	-11.0492
词	-11.0492
4.38	-11.0493
等多个	-11.0494
司法	-11.0495
3.97	-11.0495
珍	-11.0497
将为	-11.05
3.71	-11.05
公布了	-11.0501
开源证券研究所	-11.0502
238	-11.0505
▁170	-11.0506
▁九	-11.0506
▁No	-11.0507
升温	-11.0509
题	-11.0509
形成的	-11.051
股吧	-11.0511
4.09	-11.0513
特性	-11.0514
字第	-11.0514
较去年	-11.0516
中华人民共和国公司法	-11.0516
择时	-11.0516
5.70	-11.0517
980	-11.0519
近两年	-11.0519
(+1	-11.0521
▁公司点评	-11.0522
主管部门	-11.0522
1.71	-11.0522
购置	-11.0522
▁06	-11.0523
结论和建议仅供参考	-11.0524
年来	-11.0524
4.23	-11.0525
▁今年	-11.0526
思维	-11.053
▁3,000	-11.0531
396	-11.0531
承销	-11.0532
伤	-11.0533
▁弱于大市	-11.0533
哥	-11.0534
管理系统	-11.0534
▁请务必阅读正文最后的中国	-11.0534
并募集配套资金暨关联交易报告书	-11.0534
▁研发费用	-11.0535
分子	-11.0536
乌	-11.0537
205	-11.0539
的空间	-11.054
列入	-11.0541
出来	-11.0542
0.11%	-11.0543
更换	-11.0543
情况来看	-11.0544
203	-11.0545
36%	-11.0546
▁2022-07	-11.0548
防控	-11.0549
1.74	-11.055
▁0.56	-11.055
初值	-11.0551
高层	-11.0551
并表	-11.0551
1.79	-11.0552
有些	-11.0552
006	-11.0554
0%5%10%15%20%25%	-11.0555
缴	-11.0556
4.19	-11.0557
。2023	-11.0559
数字化转型	-11.0562
发达国家	-11.0563
怎么	-11.0564
0.40%	-11.0565
取决于	-11.0568
转让给	-11.0569
中山	-11.0573
。2016	-11.0575
劳务	-11.0575
呈现出	-11.0576
875	-11.0577
0008	-11.0579
车联网	-11.0579
▁0007	-11.0579
17.0	-11.0581
畅	-11.0589
▁传媒	-11.0589
综	-11.059
4.99	-11.0592
薄膜	-11.0594
助理	-11.0594
平安银行	-11.0595
爆	-11.0596
3.91	-11.0597
▁0.53	-11.0599
▁Tel	-11.06
港币	-11.06
拿	-11.06
承包	-11.06
且不得对本报告进行有悖原意的引用	-11.0601
戴	-11.0601
会计师	-11.0603
▁相对沪深	-11.0604
▁请	-11.0604
业绩表现	-11.0605
可持续	-11.0606
▁万平方米	-11.0606
4.48	-11.0609
浙	-11.0609
1.96	-11.0611
0517	-11.0613
将有	-11.0613
只个股	-11.0613
经历了	-11.0615
财务状况以及特定需求	-11.0615
研究部	-11.0616
跌至	-11.0617
自营部门以及其他投资业务部门可能	-11.0618
1.81	-11.0619
大约	-11.062
COM	-11.062
召集	-11.0621
医美	-11.0621
生命	-11.0622
▁l	-11.0624
资金需求	-11.0625
视角	-11.0625
▁0.54	-11.0625
ate	-11.0625
电力设备	-11.0628
3.93	-11.0628
▁19%	-11.0628
拆分	-11.0629
199	-11.0629
7.75	-11.0632
蓝筹	-11.0634
1.87	-11.0635
福州	-11.0635
出具了	-11.0636
可能导致	-11.0637
或有	-11.0638
6.90	-11.0638
宠物	-11.0639
常州	-11.064
4.98	-11.064
1.97	-11.064
233	-11.0641
17:	-11.0641
全文	-11.0646
▁流动负债合计	-11.0647
▁0.78	-11.0648
31%	-11.0649
执行董事	-11.0649
公司本次	-11.065
联储	-11.0651
505	-11.0651
全额	-11.0654
8.80	-11.0655
休闲服务	-11.0655
卓越	-11.0657
股息率	-11.0658
▁132	-11.066
..........	-11.066
陷入	-11.0662
12:	-11.0663
▁147	-11.0664
1.89	-11.0664
510	-11.0665
6.15	-11.0666
等业务	-11.0666
較	-11.0668
▁0.68	-11.0669
正是	-11.0669
不排除	-11.067
1.77	-11.0673
▁联系电话	-11.0674
集聚	-11.0676
损失以	-11.0681
202	-11.0682
了公司	-11.0684
筹划	-11.0687
场内	-11.0688
资本公积	-11.0688
2.30	-11.0689
4.33	-11.0692
▁3.7	-11.0694
日消息	-11.0695
绩效	-11.0695
171	-11.0696
之中	-11.0697
▁经核查	-11.0699
全天	-11.0699
+”	-11.07
募集说明书	-11.07
薪	-11.0702
htsc	-11.0704
275	-11.0705
拍	-11.0705
68.	-11.0706
▁策略	-11.0706
较上年同期	-11.0706
4.88	-11.0707
256	-11.0707
▁Americas	-11.0709
邮件	-11.0713
te	-11.0715
376	-11.0718
魏	-11.0718
民航	-11.0719
▁公用事业	-11.072
管理的	-11.0721
164	-11.0722
隔膜	-11.0723
的预测	-11.0727
未来三年	-11.0727
歌	-11.0731
不要	-11.0731
LLDPE	-11.0732
千亿	-11.0733
烟台	-11.0734
(2022	-11.0734
归属于母公司所有者的净利润	-11.0735
协同效应	-11.0735
▁126	-11.0735
行情回顾	-11.0735
股票型基金	-11.0736
1.73	-11.0736
9.20	-11.0737
5.56	-11.0738
▁143	-11.0738
▁其他非流动资产	-11.0739
清理	-11.0739
▁流通	-11.0742
姚	-11.0744
追踪	-11.0744
有较大	-11.0745
超出	-11.0748
柳	-11.075
签署的	-11.0751
要约	-11.0753
960	-11.0753
抽	-11.0753
等法律	-11.0754
提议	-11.0756
的概率	-11.0757
形象	-11.0758
▁by	-11.0759
技术开发	-11.0759
▁请务必阅读最后重要事项	-11.0761
5.01	-11.0763
峰会	-11.0763
态	-11.0764
融资成本	-11.0765
385	-11.0765
伯	-11.0768
4.37	-11.077
新零售	-11.077
▁0.58	-11.0771
片区	-11.0771
7.40	-11.0773
本行	-11.0774
年限	-11.0774
天线	-11.0775
▁X	-11.0776
条件的	-11.0777
繁	-11.0777
经济增速	-11.0778
乙二醇	-11.0779
6.70	-11.0782
潜	-11.0785
216	-11.0786
198	-11.0787
环境下	-11.0788
新药	-11.0788
6.10	-11.0789
%)。	-11.0792
临床试验	-11.0793
▁0.57	-11.0794
二线城市	-11.0795
吸收	-11.0795
中国市场	-11.0796
预告	-11.0798
的范围内	-11.0799
▁综上	-11.08
4%,	-11.08
较差	-11.0802
990	-11.0803
0.13%	-11.0803
打印	-11.0804
0.12%	-11.0804
此类	-11.0806
市场竞争	-11.0807
PR	-11.0807
营运	-11.0807
大幅下跌	-11.0808
7.30	-11.0808
序	-11.0809
渝	-11.0811
历任	-11.0813
三元	-11.0817
快手	-11.0818
0%20%40%60%80%	-11.0819
诸多	-11.0822
COMEX	-11.0824
1.83	-11.0827
▁宏观经济	-11.0827
止损	-11.0829
▁同意	-11.0829
内销	-11.0831
价值及投资收入可能会波动	-11.0834
1996	-11.0837
4.32	-11.0838
▁US	-11.0839
提高了	-11.0845
184	-11.0846
4.62	-11.0847
理性	-11.0848
应在	-11.0848
滨	-11.0849
结算价	-11.0852
搜索	-11.0853
兰州	-11.0853
▁0.85	-11.0856
數	-11.0859
2023-2025	-11.086
▁0.2%	-11.086
暖	-11.0861
7.10	-11.0861
北上资金	-11.0861
5.90	-11.0867
公司股份	-11.0869
小区	-11.087
除非	-11.0871
国泰君安	-11.0872
美的	-11.0875
未分配利润	-11.0875
5.45	-11.0876
氢能	-11.0876
3.00%	-11.0877
▁Singapore	-11.0877
8.75	-11.0877
发起	-11.0878
建筑业	-11.0878
激烈	-11.0878
▁年开始	-11.0881
▁总资产周转率	-11.0881
骏	-11.0882
网易号	-11.0882
▁companies	-11.0883
高通	-11.0883
▁年年报	-11.0884
氏	-11.0885
▁10:	-11.0885
模具	-11.0888
缩短	-11.0888
还会	-11.0891
本人不曾因	-11.0892
自主研发	-11.0893
大幅度	-11.0894
结论不受任何第三方的授意或影响	-11.0895
氯	-11.0895
营收增速	-11.0896
▁0.61	-11.0896
咨询执业资格并注册为证券分析师	-11.0897
4.78	-11.0901
青睐	-11.0901
分布式	-11.0902
的独立意见	-11.0902
一致行动人	-11.0904
2.15	-11.0905
4.68	-11.0906
触	-11.0907
剥离	-11.091
得到了	-11.091
并对其内容的真实性	-11.0911
8.20	-11.0915
不受	-11.0917
起到	-11.0918
工业增加值	-11.0919
经销	-11.092
成品油	-11.0922
型号	-11.0922
的承诺	-11.0922
教学	-11.0923
合理的	-11.0924
gf	-11.0926
席位	-11.0928
▁因此	-11.0929
竞争对手	-11.0932
交运	-11.0934
2-3	-11.0936
港交所	-11.0936
4.34	-11.0937
一个月	-11.0938
研究助理	-11.0939
,000.00	-11.0939
PA	-11.094
沙特	-11.0942
5.31	-11.0944
的客户	-11.0945
▁年下半年	-11.0947
ii	-11.0949
时间为	-11.095
4.56	-11.0951
740	-11.0953
384	-11.0954
投资顾问	-11.0956
相关部门	-11.0958
▁同	-11.0959
62%	-11.0963
宽带	-11.0964
4.39	-11.0965
隔	-11.0966
锁定期	-11.0967
家公司	-11.0969
4.76	-11.097
昨天	-11.097
5.18	-11.0972
高校	-11.0976
盒	-11.0976
刚刚	-11.0976
的不确定性	-11.0977
会议召开	-11.0977
逆	-11.0977
冰箱	-11.0979
热情	-11.0979
▁如否	-11.0979
App	-11.0979
图片或视频	-11.098
▁148	-11.098
凤凰	-11.0981
▁持股比例	-11.0984
伴随着	-11.0986
本平台仅提供信息存储服务	-11.0988
▁0.59	-11.0988
表达	-11.0989
5.95	-11.0991
194	-11.0991
业绩快报	-11.0993
亦包括在内	-11.0993
载体	-11.0994
用户上传并	-11.0994
4.66	-11.0994
1.93	-11.0995
2.01	-11.0996
月以来	-11.0996
阻力	-11.0997
人类	-11.0997
资产证券化	-11.0998
出了	-11.0999
▁0.66	-11.1
▁0.1%	-11.1003
394	-11.1003
TV	-11.1003
▁胡	-11.1004
推迟	-11.1004
入市	-11.1004
sse	-11.1006
前五	-11.1006
的局面	-11.1006
硕	-11.1006
304	-11.1007
东方财富	-11.1009
9.80	-11.1011
时机	-11.1013
上午	-11.1014
手续费	-11.1014
4.42	-11.1015
5.16	-11.1016
0.14%	-11.1017
值得期待	-11.1018
內	-11.102
尚需	-11.1022
▁AI	-11.1022
壳	-11.1023
为自媒体平台	-11.1024
可在	-11.1025
▁202	-11.1026
股份数	-11.1028
赚	-11.1029
4.36	-11.103
占用	-11.103
导致的	-11.1031
设定	-11.1031
的观点	-11.1031
钢价	-11.1032
50000	-11.1036
▁本人	-11.1041
榜单	-11.1041
▁0.67	-11.1043
结转	-11.1044
▁0.63	-11.1045
352	-11.1045
时刻	-11.1046
请阅读最后一页免责声明及信息披露	-11.1052
8.25	-11.1053
4.96	-11.1053
当月值	-11.1056
省内	-11.1057
能耗	-11.1057
265	-11.1057
不及	-11.106
额外	-11.106
敏感	-11.1061
6.88	-11.1061
20%,	-11.1062
述	-11.1064
总统	-11.1065
408	-11.1066
的可能	-11.1067
人寿	-11.1068
一半	-11.107
主因	-11.1071
5.38	-11.1072
贷款利率	-11.1074
▁工	-11.1076
规模效应	-11.1078
复制和发布	-11.108
-2018	-11.108
开发区	-11.108
总金额	-11.1081
▁155	-11.1082
ma	-11.1082
或再次分发给任何其他人	-11.1083
0.02%	-11.1086
5.55	-11.1086
电商平台	-11.1086
增長	-11.1087
346	-11.1087
本次评估	-11.1088
出租	-11.1089
790	-11.1095
▁端	-11.1096
计价	-11.1096
▁04	-11.1097
操作建议	-11.1098
4.31	-11.1099
5.35	-11.1099
电子元器件	-11.1101
5.12	-11.1102
▁钢铁	-11.1103
285	-11.1103
4.58	-11.1103
▁0.90	-11.1103
▁成都	-11.1104
OS	-11.1105
玩家	-11.1105
国开	-11.1106
艺术	-11.1106
▁0.3%	-11.1106
5.28	-11.1107
0.25%	-11.1108
平仓	-11.1111
中票	-11.1111
工业机器人	-11.1111
392	-11.1112
典型	-11.1112
资产减值损失	-11.1113
除非另有说明	-11.1113
▁亿元人民币	-11.1113
本年	-11.1115
玛	-11.1115
现值	-11.1116
将从	-11.1116
5.04	-11.1118
308	-11.1119
信达证券	-11.112
是基于	-11.112
典	-11.1121
相关政策	-11.1122
5%。	-11.1123
▁0.69	-11.1126
签字	-11.1127
4.92	-11.1127
485	-11.1128
486	-11.1129
4.72	-11.1129
9.60	-11.113
补充披露	-11.113
▁0.62	-11.113
6.05	-11.1133
课程	-11.1135
▁0026	-11.1136
前五名	-11.1139
纳斯达克	-11.1139
▁430	-11.1141
op	-11.1143
點	-11.1144
薄	-11.1145
606	-11.1146
▁6.0	-11.1147
描述	-11.1148
tfzq	-11.1149
有关部门	-11.115
归属于	-11.1151
柔性	-11.1152
▁165	-11.1154
4.84	-11.1155
找到	-11.1156
5.13	-11.1156
重磅	-11.1156
4.79	-11.1157
未来发展	-11.1158
▁现金	-11.1158
▁yoy	-11.1159
炼厂	-11.116
131	-11.116
分歧	-11.1162
▁0.95	-11.1163
▁场	-11.1164
488	-11.1164
专注	-11.1167
疲弱	-11.1168
6.00%	-11.1169
297	-11.1169
4.41	-11.117
重仓	-11.1172
▁本报告仅供	-11.1173
视觉	-11.1174
成就	-11.1175
袋	-11.1175
▁0.64	-11.1176
声明及华泰证券股票和行业评级标准	-11.1176
的条件	-11.1176
投资损失的书面或口头承诺均为无效	-11.1177
00%	-11.1177
涨幅为	-11.1179
▁168	-11.1179
30%,	-11.1179
夯实	-11.118
合并财务报表	-11.1182
国际市场	-11.1182
创新高	-11.1183
354	-11.1184
背后	-11.1185
268	-11.1187
范	-11.1187
种子	-11.1188
型基金	-11.1188
请详细说明	-11.1189
5.88	-11.1191
多晶硅	-11.1191
4.52	-11.1193
切换	-11.1196
ang	-11.1198
的担忧	-11.1201
▁润	-11.1201
强烈推荐	-11.1202
中国平安	-11.1202
发行价	-11.1203
571	-11.1203
保证本报告所含信息保持在最新状态	-11.1204
▁除	-11.1205
占比为	-11.1208
难题	-11.1212
喷	-11.1212
融入	-11.1213
上市流通	-11.1213
刚需	-11.1215
▁22%	-11.1216
4.49	-11.1219
将逐步	-11.122
秒	-11.1222
泡沫	-11.1224
不构成客户私人咨询建议	-11.1225
036	-11.1226
IN	-11.1226
征求意见稿	-11.1226
送达	-11.1229
内需	-11.1229
氟	-11.1229
5.65	-11.1231
4.61	-11.1232
有所回落	-11.1233
mg	-11.1234
罚款	-11.1234
▁筹资活动现金流	-11.1234
等板块	-11.1234
的基本情况	-11.1236
6.01	-11.1236
8.40	-11.1236
细分行业	-11.1237
5.11	-11.1238
2010-	-11.1239
4.71	-11.1241
5.26	-11.1242
315	-11.1246
执业	-11.1247
不符合	-11.1248
575	-11.1249
5.19	-11.125
传递	-11.1251
▁备	-11.1252
不超过人民币	-11.1253
▁0.79	-11.1254
▁chen	-11.1254
▁Haitong	-11.1254
轮融资	-11.1254
煤化工	-11.1255
平台的	-11.1255
5.14	-11.1256
LG	-11.1257
生产成本	-11.1259
鹰	-11.1261
▁不过	-11.1262
缺陷	-11.1264
675	-11.1265
策	-11.1266
广电	-11.1266
的人员	-11.1266
万得资讯	-11.1267
4.47	-11.1268
思考	-11.1268
▁期权	-11.1268
明显的	-11.1269
这意味着	-11.127
逸	-11.1271
4.64	-11.1272
▁144	-11.1276
(2021	-11.1277
595	-11.1278
ab	-11.1278
5.06	-11.1281
会计准则	-11.1282
▁4.00	-11.1283
▁指数涨幅介于	-11.1284
拼	-11.1284
垃圾	-11.1289
4.82	-11.1291
0.17%	-11.1292
St	-11.1293
4.67	-11.1293
▁每股经营现金流	-11.1294
4.63	-11.1295
6.35	-11.1295
对标	-11.1297
企业在	-11.1297
可见	-11.1298
6.45	-11.1298
完工	-11.1299
服饰	-11.1301
4.53	-11.1302
查看	-11.1303
全资	-11.1304
的平均	-11.1305
青年	-11.1305
派发	-11.1305
所涉及的	-11.1306
怡	-11.1306
制定了	-11.1307
5.85	-11.1307
▁固定收益	-11.1307
湿	-11.1308
9.30	-11.1309
国网	-11.1314
业绩增速	-11.1315
未发生	-11.1317
▁(7)	-11.1318
较强的	-11.1318
▁0.4%	-11.132
5.03	-11.132
实际情况	-11.132
4.87	-11.1321
4.86	-11.1322
197	-11.1322
4.46	-11.1324
▁21%	-11.1327
3%。	-11.1328
5.71	-11.1329
6%,	-11.1329
河南省	-11.1329
5.21	-11.1331
一波	-11.1332
短缺	-11.1332
5.24	-11.1332
2.08	-11.1332
公司预计	-11.1333
未经审计	-11.1334
翼	-11.1335
特高压	-11.1335
此后	-11.1337
5.08	-11.134
00000	-11.1341
中国人寿	-11.1344
显著提升	-11.1344
ao	-11.1347
。2015	-11.1347
4.43	-11.1351
0.16%	-11.1351
树脂	-11.1353
煤电	-11.1353
瓶颈	-11.1353
并购重组	-11.1354
857	-11.1355
▁强于大市	-11.1355
4.97	-11.1358
6.66	-11.136
最近三年	-11.1362
汤	-11.1363
444	-11.1366
▁核心观点	-11.1366
789	-11.1367
密度	-11.1369
6.07	-11.1369
301	-11.1369
▁华东	-11.137
沪深两市	-11.1371
一点	-11.1373
4.51	-11.1374
▁据了解	-11.1374
龄	-11.1375
766	-11.1375
126	-11.1377
4.69	-11.1378
267	-11.1379
▁3.9	-11.138
970	-11.138
流动资金	-11.138
不应	-11.138
5.17	-11.1381
5.29	-11.1382
增厚	-11.1382
的各项	-11.1382
達	-11.1383
8%,	-11.1383
4.91	-11.1383
min	-11.1384
咨询服务	-11.1385
生产能力	-11.1386
364	-11.1387
共振	-11.139
热门	-11.139
498	-11.139
感知	-11.139
开设	-11.139
低成本	-11.1391
4.83	-11.1393
247	-11.1393
环比减少	-11.1393
股票市场	-11.1394
在公司	-11.1395
4.74	-11.1397
012	-11.1398
430	-11.1399
7.01	-11.1399
▁05	-11.1399
6.06	-11.14
发展趋势	-11.1402
竹	-11.1403
发展前景	-11.1403
首席分析师	-11.1403
5.22	-11.1403
4.59	-11.1405
到期收益率	-11.1405
见解及分析方法	-11.1407
报告显示	-11.1407
▁14:	-11.1408
避	-11.1409
董秘	-11.1411
独立财务顾问	-11.1415
▁万美元	-11.1418
运维	-11.1418
自筹资金	-11.1421
▁1.05	-11.1421
氧化铝	-11.1421
20,000	-11.1424
次新股	-11.1424
▁若	-11.1424
的责任	-11.1425
革命	-11.1425
和服务	-11.1425
屋	-11.1425
/0	-11.1426
节约	-11.1427
医疗机构	-11.1427
辛	-11.1428
可以在	-11.1429
床	-11.1432
虚	-11.1432
▁20.00	-11.1433
7.15	-11.1434
皆	-11.1436
教授	-11.1437
中间价	-11.1437
预计负债	-11.1438
6.95	-11.1438
▁China	-11.1438
6.65	-11.1439
更大的	-11.144
装机容量	-11.144
4.89	-11.1441
年前	-11.1443
用药	-11.1444
数码	-11.1445
管理和	-11.1447
7.05	-11.1447
坚决	-11.1448
▁5.3	-11.1448
性和	-11.1449
递延所得税资产	-11.1451
工业企业	-11.1451
签订的	-11.1451
▁	-11.1452
乐视	-11.1452
或交易观点	-11.1453
三期	-11.1457
玻纤	-11.1457
5.02	-11.1458
6.28	-11.1458
柏	-11.1459
上扬	-11.1459
本报告期	-11.1459
876	-11.1459
▁本期增加	-11.146
仍未	-11.146
观点或立场	-11.1464
4.94	-11.1467
海尔	-11.1467
6.18	-11.1468
加大对	-11.1473
38%	-11.1473
4.73	-11.1473
3-6	-11.1475
取代	-11.1476
▁亿股	-11.1476
▁Pte	-11.1478
-0.2	-11.1484
6.85	-11.1485
8.30	-11.1486
专业人士可能会依据不同假设和标准	-11.1488
入股	-11.1492
墙	-11.1494
运力	-11.1496
加仓	-11.1501
电梯	-11.1501
998	-11.1502
工程项目	-11.1504
2.11	-11.1504
失败	-11.1505
股市场	-11.1505
公司业务	-11.1505
智能家居	-11.1506
▁2023-03	-11.1507
石油化工	-11.1508
彰显	-11.1511
4.93	-11.1516
666	-11.1516
898	-11.1517
今年上半年	-11.1517
373	-11.1518
募集资金使用	-11.1518
自身的	-11.1519
西班牙	-11.1519
的重大	-11.1519
杠杆率	-11.1523
社会库存	-11.1523
。1)	-11.1523
5.07	-11.1524
增加至	-11.1524
7.14	-11.1526
回应	-11.1527
高企	-11.1527
收市	-11.1528
585	-11.1528
預期	-11.1529
无效	-11.153
物价	-11.1531
还要	-11.1532
医生	-11.1532
报告所有接收者进行更新的义务	-11.1534
无人	-11.1535
并通过	-11.1536
4.54	-11.1538
板块的	-11.154
比值	-11.154
冶金	-11.1541
本文件	-11.1544
6.02	-11.1544
495	-11.1544
SA	-11.1545
6.16	-11.1546
▁Jan	-11.1548
093	-11.1548
合作协议	-11.1548
不断提高	-11.155
5.68	-11.155
215	-11.1552
岸	-11.1552
监事和高级管理人员	-11.1553
升幅	-11.1553
长期来看	-11.1554
▁高级销售经理	-11.1555
6.08	-11.1556
跑赢	-11.1556
防护	-11.1558
高温	-11.156
刀	-11.156
▁武汉	-11.1561
查阅	-11.1563
骨	-11.1563
0.18%	-11.1563
4.81	-11.1563
哪些	-11.1564
股票的	-11.1565
长城汽车	-11.1566
資料	-11.1566
5.36	-11.1567
严格按照	-11.1567
SC	-11.157
相关信息	-11.1572
农民	-11.1572
▁1.01	-11.1576
权属	-11.1577
54%	-11.1578
辐射	-11.1578
详情	-11.1579
686	-11.158
南宁	-11.1581
▁7-	-11.1581
路线	-11.1583
4.57	-11.1583
公允价值变动	-11.1583
如期	-11.1584
不属于	-11.1585
距	-11.1589
新规	-11.159
1-11	-11.159
麻	-11.159
310	-11.159
價格	-11.159
▁1.02	-11.1592
卢	-11.1593
负担	-11.1594
审计机构	-11.1594
并经	-11.1595
好的	-11.1596
调度	-11.1598
复盘	-11.1598
面临的	-11.1598
所需的	-11.16
轨道	-11.16
罐	-11.1601
5.48	-11.1602
海航	-11.1604
可能是	-11.1604
陶	-11.1605
274	-11.1605
较前一周	-11.1606
9.25	-11.1606
顾	-11.1607
6.24	-11.1607
(2019	-11.1607
炎	-11.1609
8.60	-11.1609
並	-11.1611
309	-11.1613
xiao	-11.1613
销售量	-11.1615
645	-11.1615
CA	-11.1617
作品内容	-11.1617
指南	-11.1618
Mo	-11.1618
289	-11.162
年第二次临时股东大会	-11.162
56%	-11.162
≥	-11.1622
▁定	-11.1624
▁4,000	-11.1624
附件	-11.1625
账面	-11.1627
6.12	-11.1627
0.03%	-11.1627
实施方案	-11.1628
胶囊	-11.1628
2.12	-11.1629
工程师	-11.163
▁发行人	-11.1631
5.98	-11.1632
发射	-11.1633
专项债	-11.1636
还可能为这些公司提供	-11.1636
产区	-11.1636
每一	-11.1641
▁总资产	-11.1641
124	-11.1642
成品	-11.1642
DC	-11.1643
破产	-11.1644
468	-11.1646
层次	-11.1647
6.55	-11.1647
7.70	-11.1649
能力和	-11.1649
1-7	-11.165
中国银行	-11.1651
网联系	-11.1652
周内	-11.1656
兴业证券研究所	-11.166
20%。	-11.1661
ER	-11.1661
去化	-11.1663
仍为	-11.1663
▁营业外收入	-11.1664
海运	-11.1665
综合考虑	-11.1668
信用卡	-11.1668
48.	-11.1669
症	-11.1669
结构调整	-11.167
线上线下	-11.1672
▁175	-11.1672
刻	-11.1674
韦	-11.1674
业务板块	-11.1676
5.27	-11.1678
▁机械设备	-11.1679
孵化	-11.168
1300	-11.1681
5.09	-11.1682
777	-11.1686
372	-11.1687
:%)	-11.1687
中信期货	-11.169
5.52	-11.1694
1999	-11.1694
项下	-11.1695
萍	-11.1696
lo	-11.1699
6.11	-11.1702
▁成长能力	-11.1703
主要集中在	-11.1703
2.04	-11.1704
造成的	-11.1704
455	-11.1705
905	-11.1706
差额	-11.1707
▁年初	-11.1708
▁-50	-11.1709
Model	-11.1709
反而	-11.1709
相似	-11.1709
场所	-11.1712
为其	-11.1714
广发	-11.1716
电量	-11.1716
担	-11.1716
表现较好	-11.1717
曾经	-11.1718
信息服务	-11.172
霞	-11.172
秦皇岛	-11.172
5.23	-11.1721
期限为	-11.1721
605	-11.1724
千万	-11.1726
风险自担	-11.1727
258	-11.1727
▁2500	-11.1729
4.77	-11.1729
▁0.88	-11.1731
寻	-11.1734
不佳	-11.1734
▁6.1	-11.1734
射频	-11.1735
668	-11.1736
6.22	-11.1736
新冠	-11.1738
变动幅度	-11.1739
产地	-11.174
0.19%	-11.174
微博	-11.174
年一季度	-11.1741
污水	-11.1742
年份	-11.1743
▁其他非流动负债	-11.1743
▁0.98	-11.1743
对该	-11.1744
与其他	-11.1745
im	-11.1745
▁Company	-11.1745
6.68	-11.1746
to	-11.1746
269	-11.1747
大市	-11.1748
经贸	-11.1749
▁证书编号	-11.175
5.33	-11.1751
沿	-11.1751
仅代表作者本人观点	-11.1751
中信银行	-11.1753
壹	-11.1753
如征得本公司同意进行引用	-11.1753
▁2022-03	-11.1753
稍	-11.1755
“《	-11.1755
内容仅供参考	-11.1756
▁年第	-11.1756
567	-11.1756
566	-11.1757
▁本报告由	-11.1757
本报告书	-11.1758
年修订	-11.1758
▁-15	-11.1758
负增长	-11.1758
尚可	-11.176
5.41	-11.176
7%,	-11.1762
839	-11.1762
▁23%	-11.1764
符合公司	-11.1765
6.21	-11.1765
研发费用率	-11.1765
投资者的	-11.1766
客户应考虑本报告中的任	-11.1766
▁农林牧渔	-11.1767
社保	-11.1767
535	-11.1767
岳	-11.1768
應	-11.1768
6.98	-11.1768
汪	-11.1769
主要由	-11.1769
发布公告称	-11.1771
有了	-11.1772
最早	-11.1774
最新摊薄	-11.1775
投向	-11.1776
市民	-11.1776
21:	-11.1777
▁个基点	-11.1777
产品研发	-11.1779
204	-11.178
232	-11.178
6.26	-11.178
回落至	-11.1783
第二次	-11.1784
▁166	-11.1785
ID	-11.1788
号文	-11.1788
枢纽	-11.1789
析	-11.1789
致使	-11.1789
6.36	-11.179
野	-11.1791
7.31	-11.1791
聚集	-11.1792
476	-11.1792
日元	-11.1792
阁下	-11.1792
上期	-11.1793
天津市	-11.1795
晖	-11.1795
464	-11.1798
▁请务必阅读正文后免责条款部分	-11.1799
图像	-11.18
5.47	-11.1801
发展有限公司	-11.1801
增大	-11.1802
知道	-11.1804
658	-11.1804
分期	-11.1805
维生素	-11.1806
物理	-11.1806
298	-11.1807
做了	-11.1808
5.44	-11.1808
1700	-11.1811
667	-11.1811
公司实际控制人	-11.1812
737	-11.1812
中原	-11.1814
▁环比	-11.1814
▁黄金	-11.1816
689	-11.1816
目前国内	-11.1817
▁当	-11.1818
进一步完善	-11.182
今后	-11.182
18:	-11.1822
局部	-11.1822
资产管理有限公司	-11.1823
天然橡胶	-11.1824
▁158	-11.1824
灰	-11.1825
普及	-11.1827
非流动资产	-11.1829
分位	-11.1829
蔚来	-11.1834
混改	-11.1835
疏	-11.1837
会授予的证券投资咨询执业资格	-11.1839
还款	-11.184
限额	-11.184
▁营业总收入	-11.184
去产能	-11.1841
266	-11.1841
7.90	-11.1842
羊	-11.1842
量子	-11.1843
促销	-11.1843
ICE	-11.1845
579	-11.1845
5.42	-11.185
6.04	-11.185
939	-11.1851
供电	-11.1851
約	-11.1852
LL	-11.1854
救	-11.1854
669	-11.1855
无关	-11.1855
生长	-11.1855
▁13:	-11.1857
6.14	-11.186
19.0	-11.186
9.40	-11.1861
常态化	-11.1861
持稳	-11.1861
制裁	-11.1863
滑	-11.1866
per	-11.1867
318	-11.1868
指数下跌	-11.1868
▁德国	-11.1868
▁月初	-11.1869
进一步扩大	-11.187
▁人民币	-11.1871
306	-11.1873
5.49	-11.1874
表面	-11.1875
稳步提升	-11.1875
37%	-11.1879
9.75	-11.1879
沪铜	-11.188
技术股份有限公司	-11.188
保证信息披露的内容真实	-11.1881
本公司及	-11.1881
思想	-11.1883
▁0.97	-11.1883
5.58	-11.1883
直营	-11.1884
5.92	-11.1885
减轻	-11.1888
6.19	-11.1888
6.48	-11.1888
655	-11.1889
品牌的	-11.189
▁6.5	-11.1891
深加工	-11.1893
▁湖南	-11.1894
5.32	-11.1895
278	-11.1895
鹏华	-11.1896
及其一致行动人	-11.1899
5.34	-11.1899
对市场	-11.1899
58%	-11.19
愿意	-11.19
但从	-11.19
▁24%	-11.19
▁上证	-11.1901
0009	-11.1901
不利	-11.1904
7.02	-11.1904
非洲	-11.1906
6.17	-11.1906
6.13	-11.1914
▁公司于	-11.1914
6.46	-11.1914
559	-11.1915
5.76	-11.1917
很高	-11.1917
公司及	-11.1918
三家	-11.1919
5.62	-11.1919
▁0.86	-11.1921
7.45	-11.1923
低碳	-11.1923
▁0.96	-11.1924
现行	-11.1924
驱	-11.1924
209	-11.1924
的收益	-11.1925
▁021-	-11.1925
799	-11.1926
▁请务必阅读正文后的声明及说明	-11.1926
经常	-11.1927
Al	-11.1929
6.29	-11.1929
245	-11.1929
5.37	-11.193
▁利率	-11.1931
他人	-11.1931
7.95	-11.1931
禽	-11.1932
/12/1	-11.1932
下发	-11.1932
57%	-11.1933
5.72	-11.1934
50%。	-11.1936
乡村振兴	-11.1937
怀	-11.1938
与上市公司	-11.194
合并报表	-11.194
7.21	-11.1945
525	-11.1946
5.78	-11.1946
▁同比增速	-11.1947
▁投资策略	-11.1948
7.17	-11.1948
18.0	-11.1948
▁营运能力	-11.195
805	-11.1952
▁157	-11.1954
协作	-11.1954
um	-11.1956
EB	-11.1956
在该	-11.1959
重庆市	-11.1959
相关业务	-11.196
以上文章内容	-11.196
燃油	-11.196
大增	-11.1961
899	-11.1961
推出的	-11.1962
码头	-11.1963
表后的	-11.1964
7.22	-11.1966
6.42	-11.1966
5.82	-11.1967
▁0.82	-11.1967
5.89	-11.1968
5.86	-11.1969
验	-11.1969
使用寿命	-11.1969
强制	-11.1969
872	-11.197
▁169	-11.1971
▁折旧摊销	-11.1971
大街	-11.1973
406	-11.1973
投资建设	-11.1973
496	-11.1976
财务顾问或者金融产品等相关服务	-11.1977
60.00	-11.1978
820	-11.198
督促	-11.1981
南昌	-11.1982
格力电器	-11.1983
纪录	-11.1984
服务标记及标记均为本公司的商标	-11.1985
认知	-11.1986
自研	-11.1986
订阅	-11.1987
咨询执业资格或相当的专业胜任能力	-11.1987
版权或其它问题请于作品发	-11.1988
报送	-11.1991
866	-11.1991
日内与新浪	-11.1991
7.04	-11.1992
地面	-11.1992
▁货币	-11.1992
▁0.91	-11.1992
个工作日内	-11.1992
增值服务	-11.1993
行业竞争加剧	-11.1995
如有关于	-11.1996
首次覆盖	-11.1997
000.0	-11.1997
进步	-11.1999
共建	-11.2002
53%	-11.2003
7.78	-11.2004
9.99	-11.2006
十二条	-11.2006
分析逻辑基于作者的职业理解	-11.2008
7.12	-11.2009
事务	-11.201
之间波动	-11.2011
66%	-11.2012
-2022	-11.2013
677	-11.2014
7.27	-11.2015
▁个百分点至	-11.2016
昊	-11.2016
珠宝	-11.2017
评审	-11.2018
皇	-11.2018
259	-11.2018
0.21%	-11.202
的过程中	-11.202
5.81	-11.202
7.24	-11.2024
7.28	-11.2024
6.87	-11.2025
所得税费用	-11.2026
▁$	-11.2027
不代表新浪网	-11.2028
业界	-11.2029
暂无	-11.203
568	-11.203
6.92	-11.203
▁6.2	-11.2031
5.43	-11.2033
建议投资者	-11.2033
0.04%	-11.2034
外国	-11.2037
吨左右	-11.2038
7.18	-11.2038
前沿	-11.2038
0.23%	-11.2039
自愿	-11.204
0.22%	-11.2041
▁例	-11.2041
▁0005	-11.2042
评估及预测不一致的研究报告	-11.2042
489	-11.2044
限售	-11.2045
5.79	-11.2045
252	-11.2046
5.51	-11.2046
远高于	-11.2046
▁0.99	-11.2047
(%,	-11.2047
5.77	-11.2048
▁0.84	-11.2049
0.60%	-11.205
极大	-11.2051
一天	-11.2051
▁163	-11.2052
9.90	-11.2052
333	-11.2055
登陆	-11.2055
太平洋	-11.2057
十八	-11.2057
当周	-11.2058
时候	-11.2058
提升了	-11.2059
孟	-11.206
465	-11.206
6.72	-11.2061
6.32	-11.2061
5.83	-11.2063
风机	-11.2063
湖南省	-11.2064
转回	-11.2065
▁131	-11.2065
5.39	-11.2066
正面	-11.2066
6.38	-11.2067
6.62	-11.2069
191	-11.207
6.27	-11.207
5.99	-11.207
学历	-11.2071
环卫	-11.2071
7.09	-11.2072
银华	-11.2072
6.96	-11.2073
股东大会审议通过	-11.2073
图片	-11.2073
▁项目名称	-11.2073
将由	-11.2074
合计持有	-11.2075
▁142	-11.2075
强于	-11.2075
导向	-11.2075
对中国	-11.2077
▁新疆	-11.2079
金融产品	-11.208
起步	-11.2081
▁177	-11.2081
限售股	-11.2082
Neutral	-11.2082
6.09	-11.2083
5.67	-11.2084
7.58	-11.2085
▁0.81	-11.2085
699	-11.2086
诉	-11.2086
衡	-11.2087
7.85	-11.2088
同类	-11.2089
电解液	-11.2093
678	-11.2095
5.84	-11.2095
7.26	-11.2095
规模为	-11.2096
电子产品	-11.2096
历史上	-11.2098
亮眼	-11.2098
▁	-11.21
延迟	-11.2102
▁男	-11.2102
期现价差	-11.2102
是因为	-11.2104
权威	-11.2104
2/2	-11.2105
我公司对这些信息的	-11.2105
混凝土	-11.2105
7.35	-11.2107
▁185	-11.2108
因素影响	-11.2108
开户	-11.2108
丨	-11.2109
▁0.6%	-11.2109
降温	-11.2112
长远	-11.2112
▁-40	-11.2114
工程建设	-11.2114
本公司对本报告保留一切权利	-11.2116
中石化	-11.2117
执	-11.2118
0.05%	-11.2119
6.64	-11.2119
0.10%	-11.212
成本端	-11.212
6.49	-11.212
的过程	-11.2121
6.33	-11.2123
同业存单	-11.2123
随时	-11.2125
同日	-11.2126
河北省	-11.2126
中介	-11.2128
8.90	-11.2129
5.46	-11.213
配件	-11.2131
医疗保健	-11.2131
9,000	-11.2131
▁中信期货研究	-11.2134
投资决策	-11.2135
中南	-11.2135
瑞银	-11.2136
▁164	-11.2136
▁财务报表附注	-11.2138
▁本期减少	-11.2138
▁类	-11.2138
标志着	-11.214
余额为	-11.2141
7.03	-11.2141
出清	-11.2143
▁如	-11.2143
负债率	-11.2146
银保监会	-11.2147
ot	-11.2151
紧急	-11.2152
年年度股东大会	-11.2153
328	-11.2155
5.96	-11.2155
▁苏	-11.2157
淘宝	-11.2158
统计局	-11.2158
5.64	-11.2158
467	-11.216
838	-11.216
市场中	-11.2161
/12/31	-11.2162
0.24%	-11.2162
动物	-11.2162
机器	-11.2163
是由	-11.2163
见下表	-11.2163
一站式	-11.2164
0.26%	-11.2166
▁据悉	-11.2167
gs	-11.2169
5.63	-11.2171
客运	-11.2171
7.29	-11.2173
美债	-11.2173
▁2022-04	-11.2175
等事项	-11.2177
5.73	-11.2178
707	-11.2179
6.99	-11.2179
5.54	-11.2179
必然	-11.2182
6.41	-11.2184
5.74	-11.2184
487	-11.2185
6.91	-11.2185
335	-11.2186
有所提升	-11.2186
入选	-11.2186
705	-11.2187
主要业务	-11.2187
等等	-11.2188
▁220	-11.2188
7.06	-11.2189
输送	-11.2189
6.37	-11.219
燃料电池	-11.219
674	-11.2191
788	-11.2191
484	-11.2191
▁188	-11.2192
▁-0.3	-11.2192
▁公允价值变动收益	-11.2193
219	-11.2195
▁安	-11.2198
6.23	-11.2199
扩散	-11.22
▁4.8	-11.22
生态环境	-11.22
▁000	-11.2201
7.23	-11.2201
到期日	-11.2201
炼	-11.2201
钠	-11.2202
▁总	-11.2206
5.66	-11.2206
▁4.6	-11.221
公司向	-11.221
▁0.87	-11.2211
▁240	-11.2211
最小	-11.2212
5.61	-11.2212
404	-11.2214
建筑面积	-11.2214
利润增速	-11.2215
帮	-11.2215
假期	-11.2216
姆	-11.222
5.59	-11.2222
折扣	-11.2223
0%10%20%30%40%	-11.2223
-2020	-11.2223
而非	-11.2224
▁主要财务比率	-11.2224
的资产管理部门	-11.2226
蒋	-11.2227
919	-11.2227
7.08	-11.2229
商贸	-11.2229
正向	-11.2231
的关系	-11.2231
季报	-11.2231
-2019	-11.2233
▁中金公司研究部	-11.2233
▁0.92	-11.2235
▁营运资金变动	-11.2235
排序	-11.2237
第九	-11.2237
8.88	-11.2238
海通国际	-11.2238
点击	-11.2239
湖北省	-11.2242
▁t	-11.2244
▁190	-11.2245
7.65	-11.2245
电视剧	-11.2247
脉	-11.2247
偿债能力	-11.2247
開	-11.2249
具体情况如下	-11.2249
发货	-11.225
注射液	-11.2251
438	-11.2252
是我国	-11.2254
6.57	-11.2254
提醒	-11.2257
强大	-11.2258
产业政策	-11.2258
6.63	-11.2258
6.97	-11.2259
归属于上市公司股东的	-11.226
1.50%	-11.2262
减值损失	-11.2262
任何形式的分享证券投资收	-11.2263
▁are	-11.2264
▁0.89	-11.2264
产销量	-11.2265
可能存在	-11.2265
8.70	-11.2265
338	-11.2265
新能	-11.2266
▁1.03	-11.2266
中银	-11.2267
遇到	-11.2268
本次发行的	-11.227
▁郑	-11.2272
中国国籍	-11.2273
心态	-11.2275
業績	-11.2275
8.05	-11.2277
您好	-11.2278
6.03	-11.2279
数据来看	-11.2279
的指导意见	-11.228
7.88	-11.2281
9.70	-11.2283
9.15	-11.2284
SHIBOR	-11.2284
接待	-11.2285
注册制	-11.2285
0.28%	-11.2285
作价	-11.2285
颗粒	-11.2286
6.44	-11.2288
0.35%	-11.229
身份	-11.229
▁0.83	-11.2291
4,000.00	-11.2292
的开发	-11.2293
)、《	-11.2294
▁核心	-11.2295
6.94	-11.2296
填	-11.2296
862	-11.2297
私募基金	-11.2298
9.96	-11.2299
专户	-11.2299
据悉	-11.2299
8.10	-11.2299
¥	-11.23
的批复	-11.23
6.89	-11.23
化纤	-11.2301
魔	-11.2301
聚合	-11.2302
▁5,0	-11.2303
欲	-11.2304
合营企业	-11.2304
5.87	-11.2304
城商行	-11.2305
城乡	-11.2305
7.16	-11.2306
可以看出	-11.2307
乡村	-11.2307
风控	-11.2308
原创	-11.2308
在过去	-11.2311
大大	-11.2311
▁In	-11.2312
指数为	-11.2312
益或者分担证券	-11.2312
大小	-11.2313
6.56	-11.2313
478	-11.2313
年半年度	-11.2314
技术优势	-11.2317
副董事长	-11.2317
哲	-11.2318
5.91	-11.232
研究人员	-11.2321
期货市场	-11.2321
语言	-11.2322
柯	-11.2322
较上年	-11.2322
7.07	-11.2322
.........	-11.2322
1@	-11.2323
SaaS	-11.2324
复印件或复制品	-11.2324
监管机构	-11.2325
775	-11.2325
6.47	-11.2325
5.97	-11.2326
佣金	-11.2327
进一步提高	-11.2328
6.71	-11.2328
预防	-11.2328
lin	-11.2329
▁续	-11.2331
▁5,6	-11.2332
申请人	-11.2333
5.94	-11.2333
经费	-11.2334
479	-11.2334
内生	-11.2334
护理	-11.2335
明确了	-11.2336
证券投资咨询	-11.2337
▁2021-01	-11.2337
qi	-11.2341
贵公司	-11.2341
5,000,000.00	-11.2342
执法	-11.2342
控制系统	-11.2342
合资公司	-11.2342
返	-11.2343
295	-11.2344
资产规模	-11.2344
的态势	-11.2345
之上	-11.2346
的市场份额	-11.2346
685	-11.2347
总收入	-11.2348
新浪	-11.2349
6.43	-11.2349
▁5,3	-11.235
6.61	-11.235
▁估值比率	-11.2352
435	-11.2352
炼化	-11.2353
能量	-11.2353
财政政策	-11.2354
6.79	-11.2355
▁全	-11.2355
7.13	-11.2355
▁公司发布	-11.2357
邮	-11.2358
▁1.50	-11.2359
0,000	-11.2361
鸣	-11.2361
壁	-11.2363
下一	-11.2364
est	-11.2365
个季度	-11.2366
到来	-11.2366
佛	-11.2366
5.69	-11.2366
敬	-11.2367
指导意见	-11.2367
銷售	-11.2367
▁深	-11.2368
▁变动	-11.2369
596	-11.237
6.58	-11.2371
7.11	-11.2372
论证	-11.2374
小幅上涨	-11.2374
收获	-11.2377
来了	-11.2377
基金托管人	-11.2379
▁经营范围	-11.238
AC	-11.238
过往	-11.238
厦	-11.2381
户外	-11.2381
脚	-11.2382
9.95	-11.2382
9.01	-11.2383
6.93	-11.2383
独立做出与本报告中的意见或	-11.2385
行业研究	-11.2385
6.78	-11.2387
管理局	-11.2388
沽	-11.2388
▁154	-11.2389
1994	-11.2389
中信建投证券研究发展部	-11.239
6.82	-11.239
▁境内自然人	-11.239
2400	-11.239
家数	-11.2391
▁4.7	-11.2392
▁营业外支出	-11.2392
主要受	-11.2393
构	-11.2393
发酵	-11.2394
稳固	-11.2396
6.86	-11.2396
本公告内容不存在任何虚假记载	-11.2396
变量	-11.2397
▁中信证券	-11.2398
8.28	-11.2399
665	-11.2399
投资集团有限公司	-11.24
货款	-11.2401
218	-11.2402
艳	-11.2402
▁煤炭	-11.2402
燃料油	-11.2403
市政府	-11.2404
569	-11.2406
轻工	-11.2406
持续下降	-11.2407
662	-11.2409
5.53	-11.2409
▁售	-11.2411
坚	-11.2411
6.76	-11.2412
410	-11.2413
總	-11.2414
342	-11.2414
可以通过	-11.2415
北交所	-11.2415
高盛	-11.2416
幅	-11.2416
▁1.04	-11.2418
▁187	-11.2419
公众号	-11.2419
7.92	-11.242
入驻	-11.242
自我	-11.2421
255	-11.2423
错误	-11.2423
单个	-11.2425
具备证券投资咨询业务资格	-11.2427
年同期	-11.2427
30%。	-11.243
年开始	-11.2431
制备	-11.2432
44%	-11.2435
CT	-11.2436
左右的	-11.2437
年初以来	-11.2437
6.39	-11.2437
0%;	-11.2438
消费需求	-11.2439
2800	-11.2439
销售金额	-11.244
▁福建	-11.2441
信达	-11.2442
年轻	-11.2443
很快	-11.2444
协议转让	-11.2444
熔	-11.2445
5.57	-11.2446
去杠杆	-11.2446
锅炉	-11.2448
隔离	-11.2448
▁HRB	-11.2448
牵头	-11.2449
UBS	-11.2451
6.51	-11.2452
▁1.20	-11.2452
不代表	-11.2453
温州	-11.2453
swhysc	-11.2453
广州市	-11.2453
与本公司	-11.2455
已经成为	-11.2455
920	-11.2456
▁1.0%	-11.2456
可实现	-11.2457
已达	-11.2458
個	-11.2458
▁流通市值	-11.2458
雷达	-11.2459
8.31	-11.2459
9.97	-11.2459
障碍	-11.2459
默	-11.246
▁-30	-11.2461
一套	-11.2461
2.50%	-11.2461
投资于	-11.2463
创新发展	-11.2465
黑色	-11.2465
庭	-11.2465
-31	-11.2466
专题研究	-11.2466
1#	-11.2467
0.20%	-11.2467
人民币普通股	-11.2469
投资性房地产	-11.2471
起点	-11.2472
0.29%	-11.2473
产业的	-11.2473
9.00	-11.2475
吸引力	-11.2475
-40	-11.2475
管线	-11.2476
豁免	-11.2477
的证券	-11.2477
年第三季度	-11.2477
未来将	-11.2477
国家能源局	-11.2477
10%。	-11.248
期限利差	-11.2482
商场	-11.2482
期指	-11.2482
264	-11.2484
趋	-11.2485
角度看	-11.2486
▁英国	-11.2486
结构性存款	-11.2487
776	-11.2487
7.55	-11.2488
附属	-11.2489
一部分	-11.249
净利润增速	-11.2491
植	-11.2491
职能	-11.2491
超募资金	-11.2491
市场风险	-11.2492
量为	-11.2493
883	-11.2494
融资融券余额	-11.2495
445	-11.2495
〃	-11.2495
出席会议	-11.2496
8.24	-11.2496
关注度	-11.2496
华西证券研究所	-11.2496
优质的	-11.2497
较上一交易日	-11.2497
676	-11.2497
权限	-11.2497
同行	-11.2498
7.19	-11.2499
天下	-11.2499
8.15	-11.2499
可观	-11.2499
该事项	-11.25
0.27%	-11.25
▁预测	-11.25
▁2021-07	-11.25
8.18	-11.25
钨	-11.2503
有利于公司	-11.2504
▁5,5	-11.2506
来源于	-11.2507
销售渠道	-11.2507
摄像头	-11.2508
第二期	-11.2508
9.05	-11.2509
7.98	-11.2509
总规模	-11.2509
608	-11.251
辞职	-11.2511
的冲击	-11.2511
4500	-11.2511
兼任	-11.2513
蔡	-11.2513
409	-11.2516
	-11.2517
子板块	-11.2518
曹	-11.2519
6.81	-11.2519
中有	-11.2522
数据截至	-11.2523
在北京	-11.2523
任期	-11.2524
→	-11.2524
393	-11.2525
发布会	-11.2525
▁以上内容由	-11.2526
国投	-11.2526
6.53	-11.2527
根据公开信息整理	-11.2528
5.93	-11.2528
358	-11.2529
6.84	-11.2529
565	-11.253
的方法	-11.253
补库	-11.2531
领先地位	-11.2531
碳酸锂	-11.2532
应当在	-11.2533
焊接	-11.2534
新模式	-11.2535
▁率	-11.2536
中国企业	-11.2536
莉	-11.2537
▁0.93	-11.2537
217	-11.2537
43%	-11.2538
全体董事	-11.2539
374	-11.2539
丙烯	-11.254
257	-11.2541
龙头公司	-11.2541
7.48	-11.2541
▁167	-11.2543
6.34	-11.2544
争议	-11.2545
涂	-11.2545
营养	-11.2545
测量	-11.2545
粒	-11.2546
477	-11.2546
▁分发	-11.2547
抢占	-11.2548
方正中期研究院	-11.2548
▁0.94	-11.255
主要是由于	-11.2551
Finance	-11.2551
70.00	-11.2553
679	-11.2553
6.52	-11.2553
759	-11.2554
交易系统	-11.2554
8.08	-11.2555
AS	-11.2555
后者	-11.2557
577	-11.2558
▁6.4	-11.2559
398	-11.2559
先锋	-11.256
其他业务	-11.256
中天	-11.2561
持续关注	-11.2562
279	-11.2562
严峻	-11.2563
556	-11.2564
的权益	-11.2566
795	-11.2567
小幅回落	-11.2567
年度股东大会	-11.2567
316	-11.2567
▁力	-11.257
9.10	-11.257
7.41	-11.257
公用	-11.257
▁苏州	-11.257
7.76	-11.2576
572	-11.2579
大力发展	-11.2581
▁8000	-11.2583
545	-11.2583
8.01	-11.2584
表現	-11.2585
6.69	-11.2587
▁非流动资产合计	-11.2588
▁与收益相关	-11.2589
19:	-11.259
沪股通	-11.2592
▁万千瓦	-11.2593
▁Mar	-11.2595
°	-11.2596
值得关注	-11.2597
ast	-11.2597
数额	-11.2599
▁5,4	-11.2599
809	-11.2601
公司董事长	-11.2602
296	-11.2602
过剩	-11.2602
6.31	-11.2603
市场环境	-11.2603
轩	-11.2603
6.74	-11.2604
1100	-11.2604
9.09	-11.2605
277	-11.2606
最重要的	-11.2606
管理委员会	-11.2606
的历史	-11.2607
公司主要	-11.2608
资金的	-11.2608
营运资金	-11.2609
月至今	-11.2611
▁-5%	-11.2611
中铁	-11.2611
违法	-11.2612
ge	-11.2612
有望实现	-11.2613
流通市值	-11.2613
▁基础化工	-11.2613
利润分配政策	-11.2615
提请	-11.2616
的经济	-11.2616
航班	-11.2617
同行业	-11.2618
天地	-11.2619
213	-11.262
▁6.00	-11.2621
弥补	-11.2621
高科技	-11.2622
首次授予	-11.2622
净投放	-11.2622
连接器	-11.2622
FOB	-11.2623
海通	-11.2623
银河期货	-11.2623
化的	-11.2624
复牌	-11.2624
预期的	-11.2626
8.21	-11.2626
7.36	-11.2626
42%	-11.263
美國	-11.2631
目标公司	-11.2631
9.06	-11.2631
透明	-11.2632
▁上半年	-11.2632
焊	-11.2632
▁公司点评报告	-11.2632
最高价	-11.2634
获利	-11.2634
肖	-11.2637
▁183	-11.2638
7.44	-11.2644
海通证券	-11.2645
人次	-11.2645
紧缩	-11.2646
39%	-11.2647
成长空间	-11.2647
中所指的投资及服务可能不适合个别	-11.2647
铺	-11.2649
▁5.4	-11.265
做市	-11.265
农户	-11.2652
▁日当周	-11.2653
7.32	-11.2653
的账面价值	-11.2655
8.02	-11.2655
轴承	-11.2656
预售	-11.2656
8.00%	-11.2657
979	-11.2657
▁湖北	-11.2657
▁2023-04	-11.2657
优秀的	-11.2657
示范区	-11.2659
0700	-11.266
234	-11.266
▁报告发布日后的	-11.2661
使用的	-11.2662
▁6008	-11.2663
578	-11.2663
ES	-11.2664
▁5,2	-11.2666
9.98	-11.2668
非银行金融	-11.267
北斗	-11.2671
的主要原因	-11.2671
提及	-11.2672
7.38	-11.2672
6.77	-11.2672
BB	-11.2673
有效期	-11.2674
峰值	-11.2674
邻	-11.2675
336	-11.2675
6.73	-11.2678
信息系统	-11.2679
8.33	-11.268
額	-11.2681
悬	-11.2684
业务规模	-11.2684
7.46	-11.2684
有限公	-11.2685
6.54	-11.2686
采用不同的分析方法而口头或书	-11.2686
0.34%	-11.2687
高品质	-11.2687
杯	-11.2688
准确性和完整性承担个别及连带责任	-11.2689
小微	-11.269
的权利	-11.2692
频繁	-11.2693
判决	-11.2693
折价	-11.2694
9.02	-11.2695
拆	-11.2696
586	-11.2697
244	-11.2698
经济的	-11.2699
日晚间公告	-11.2699
晨报	-11.2699
农业银行	-11.2703
聯	-11.2703
多少	-11.2706
横向	-11.271
7.74	-11.271
副主任	-11.2711
▁111	-11.2712
474	-11.2714
掌	-11.2715
体现了	-11.2715
以及其他	-11.2718
8.85	-11.2718
7.68	-11.2718
动漫	-11.2719
大幅波动	-11.272
7.42	-11.2723
管网	-11.2724
规范运作	-11.2727
经营状况	-11.2728
▁1.06	-11.2729
▁5,9	-11.2731
内控	-11.2732
建信	-11.2733
投机	-11.2733
以此	-11.2733
7.33	-11.2733
欧洲央行	-11.2734
相对同期相关证券市场代表性指数	-11.2736
主产区	-11.2737
密切	-11.2738
687	-11.2738
7.37	-11.2738
优势明显	-11.2738
客流	-11.2738
▁153	-11.2739
▁虽然	-11.2739
在其	-11.2739
多方	-11.2739
炒	-11.2739
被告	-11.274
不考虑	-11.274
469	-11.2741
细则	-11.2745
292	-11.2745
干部	-11.2746
较昨日	-11.2747
Rmb	-11.2748
9.28	-11.2752
8.29	-11.2752
因公司	-11.2754
7.99	-11.2754
其他重要信息	-11.2754
企业家	-11.2754
▁美國	-11.2755
交易量	-11.2755
对上市公司	-11.2757
深圳证券交易所股票上市规则	-11.2759
增产	-11.2759
1995	-11.276
2/3	-11.2761
▁邮编	-11.2763
探讨	-11.2764
主要股东	-11.2764
周末	-11.2768
246	-11.2768
崇	-11.2769
申万一级行业	-11.277
262	-11.2771
499	-11.2772
复合增速	-11.2773
钻	-11.2773
积极布局	-11.2774
1501	-11.2775
tpyz	-11.2775
周涨幅	-11.2775
委托理财	-11.2775
执行情况	-11.2777
8.26	-11.2777
处理器	-11.2777
会在	-11.2778
电池片	-11.2779
0.32%	-11.2779
273	-11.2779
金融负债	-11.278
海上风电	-11.2781
财务状况和特定需求	-11.2781
869	-11.2781
历	-11.2785
公司整体	-11.2785
张家港	-11.2785
708	-11.2785
nbsp	-11.2786
审计委员会	-11.2786
6.83	-11.2787
15%;	-11.2787
0520	-11.279
局势	-11.2792
买入评级	-11.2793
7.69	-11.2797
909	-11.2798
综合指数	-11.2799
638	-11.2801
▁10.0%	-11.2801
发展空间	-11.2801
水泥价格	-11.2802
问询函	-11.2803
归母	-11.2803
均已	-11.2803
868	-11.2808
策划	-11.2808
首次公开发行	-11.2809
MO	-11.2809
地方债	-11.281
▁全国	-11.2812
0.36%	-11.2813
影院	-11.2814
年全年	-11.2814
塘	-11.2814
▁2022-12	-11.2815
▁上证指数	-11.2816
上榜	-11.2816
京东方	-11.2818
矿石	-11.2818
那些	-11.2818
合理性	-11.2818
9.22	-11.282
8.22	-11.282
787	-11.282
预计在	-11.282
248	-11.2821
8.16	-11.2821
446	-11.2823
的子公司	-11.2823
▁债券	-11.2826
全市场	-11.2826
发债	-11.2827
通知书	-11.2829
三峡	-11.2829
丌	-11.283
00-	-11.2831
插	-11.2833
9.04	-11.2833
基金公司	-11.2835
9.18	-11.2837
发明专利	-11.2837
利息支出	-11.2839
并不是	-11.2839
696	-11.284
▁华夏	-11.284
语音	-11.2841
十八条	-11.2843
第四季度	-11.2843
会计年度	-11.2844
955	-11.2844
种业	-11.2845
▁5,7	-11.2845
热电	-11.2846
出发	-11.2847
阿根廷	-11.2847
比上年	-11.2848
7.86	-11.2849
0.31%	-11.285
增长至	-11.2851
使命	-11.2854
▁轻工制造	-11.2856
边际改善	-11.2857
▁162	-11.2857
778	-11.2859
452	-11.2859
7.84	-11.286
计提坏账准备	-11.2861
▁公司评级	-11.2861
深刻	-11.2862
9.08	-11.2863
▁净利润增长率	-11.2863
8.89	-11.2864
桑	-11.2865
自查	-11.2866
光纤	-11.2867
0.33%	-11.2868
▁以报告日后的	-11.2868
投资标的	-11.2868
▁&	-11.2868
现价	-11.2869
BO	-11.2871
7.72	-11.2871
818	-11.2872
所持有的	-11.2873
▁179	-11.2874
发售	-11.2874
苦	-11.2875
337	-11.2875
MI	-11.2876
做空	-11.2877
钛白粉	-11.2877
用户的	-11.2878
不够	-11.2879
三维	-11.2881
▁0008	-11.2882
单季	-11.2882
荣获	-11.2886
对依据或者使用本报告所造成的一切	-11.2886
小幅下降	-11.2886
7.94	-11.2887
光伏发电	-11.2887
正处于	-11.2888
单日	-11.2889
8.95	-11.289
▁Tabl	-11.2893
活跃合约	-11.2894
8.23	-11.2896
依法须经批准的项目	-11.2897
67%	-11.2897
城建	-11.2897
0.38%	-11.2897
8.45	-11.2898
284	-11.2899
7.89	-11.2899
银河证券股份公司免责声明	-11.29
958	-11.2901
▁-0.5	-11.2901
与会	-11.2901
映	-11.2902
公司营业收入	-11.2902
股利	-11.2903
驻	-11.2903
8.06	-11.2904
64%	-11.2904
≤	-11.2906
首家	-11.2906
的公司所发行的证券头寸并进行交易	-11.2907
659	-11.2907
km	-11.2907
7.71	-11.2907
交换	-11.2908
▁基于	-11.2909
7.77	-11.291
RMB	-11.291
息和意见进行独立评估	-11.291
▁投资者提问	-11.291
日晚间	-11.2912
痛	-11.2912
6,000.00	-11.2914
并网	-11.2916
董事会决议	-11.2916
和技术	-11.2917
293	-11.2917
859	-11.2917
▁2004	-11.2919
▁1.10	-11.2921
从公开信息	-11.2921
7.52	-11.2922
社会公众	-11.2923
9.92	-11.2923
卖方	-11.2924
下游客户	-11.2925
-2021	-11.2925
去库	-11.2926
EPC	-11.2927
万家	-11.2927
便捷	-11.2927
深股通	-11.2927
▁化工	-11.2927
销售价格	-11.2928
云服务	-11.2928
7.82	-11.2929
有所回升	-11.293
FC	-11.293
叫	-11.293
253	-11.2931
8.55	-11.2931
▁南华研究	-11.2932
迁	-11.2933
第一季度	-11.2933
玲	-11.2935
光模块	-11.2937
的现金	-11.294
8.11	-11.294
活跃度	-11.294
8.13	-11.2941
兴业证券股份有限公司	-11.2942
482	-11.2942
占比提升	-11.2942
首次公开发行股票	-11.2943
某些	-11.2945
698	-11.2947
6.59	-11.2947
削减	-11.2947
投资价值	-11.2948
yang	-11.2949
参阅正文后面的信息披露和法律声明	-11.2949
云南省	-11.295
090	-11.2952
8.35	-11.2953
清偿	-11.2954
▁w	-11.2955
656	-11.2955
客户提供	-11.2956
碳排放	-11.2957
为负	-11.2957
估	-11.2958
获得的	-11.2958
598	-11.2958
個月	-11.2959
新兴产业	-11.2961
日均线	-11.2961
北京时间	-11.2961
成交面积	-11.2962
▁个交易日	-11.2962
▁本年	-11.2962
加工费	-11.2963
技能	-11.2966
▁831	-11.2967
▁-2%	-11.2968
核查意见	-11.2969
7.56	-11.2969
283	-11.2972
855	-11.2973
证据	-11.2973
过户	-11.2973
▁国防军工	-11.2973
存放	-11.2976
7.91	-11.2976
基准日	-11.2978
的准确性	-11.2979
不存在虚假记载	-11.2983
缓和	-11.2984
渣	-11.2988
规避	-11.2988
7.62	-11.2988
主要内容	-11.2988
3500	-11.2989
8.04	-11.299
852	-11.299
将其持有的	-11.2991
▁178	-11.2992
8.14	-11.2993
886	-11.2994
相关性	-11.2994
佰	-11.2994
中金	-11.2995
落户	-11.2995
证券市场	-11.2995
10%,	-11.2995
本研究报告仅通过邮件提供给	-11.2997
中摘录	-11.2997
▁189	-11.2997
不保证数据的准确性	-11.2997
工作的	-11.2997
848	-11.2997
渡	-11.2998
本信息由	-11.2998
报名	-11.3001
时表示	-11.3001
关口	-11.3001
制订	-11.3002
防疫	-11.3004
7.67	-11.3004
产品和	-11.3004
▁研究创造价值	-11.3005
7.43	-11.3006
▁现金净增加额	-11.3006
的创新	-11.3007
渤海	-11.3007
576	-11.3008
并与	-11.301
纳米	-11.3012
鹤	-11.3012
关键技术	-11.3012
7.93	-11.3013
▁营业费用	-11.3014
颗	-11.3014
轮动	-11.3014
行业集中度	-11.3016
采集	-11.3016
EIA	-11.3017
636	-11.3017
人民银行	-11.3017
▁199	-11.3019
▁董秘回答	-11.302
7.34	-11.302
三条	-11.3021
830	-11.3025
272	-11.3025
▁26%	-11.3025
8.27	-11.3025
电子行业	-11.3027
ai	-11.3027
第一批	-11.3027
8.65	-11.3028
7.97	-11.3028
一流	-11.303
政策支持	-11.3031
招股书	-11.3032
流动资产	-11.3033
钢结构	-11.3034
半导体设备	-11.3037
有所增加	-11.3039
讲话	-11.304
299	-11.3042
-2017	-11.3043
使用募集资金	-11.3043
9.11	-11.3044
433	-11.3044
储蓄	-11.3044
植物	-11.3045
仅供	-11.3045
282	-11.3045
画	-11.3045
21.0	-11.3047
7.39	-11.3049
239	-11.3049
霸	-11.305
影响较大	-11.305
8.48	-11.3051
▁南	-11.3051
▁1-2	-11.3052
交易标的	-11.3054
▁第一	-11.3054
7.87	-11.3055
7.49	-11.3055
共识	-11.3058
9.21	-11.3059
▁邮	-11.3059
▁其它	-11.3059
转增	-11.3059
▁5,8	-11.306
○	-11.306
▁河南	-11.306
晶圆	-11.306
7.61	-11.3061
8.98	-11.3062
省市	-11.3063
年龄	-11.3063
22:	-11.3063
▁1200	-11.3064
应付账款	-11.3064
Invest	-11.3065
新开工	-11.3066
阻	-11.3066
财险	-11.3069
居前	-11.3069
跳	-11.3069
RE	-11.3071
age	-11.3074
面发表与本	-11.3075
454	-11.3076
聘	-11.3078
个交易日内	-11.3079
730	-11.3079
个券	-11.3081
0.37%	-11.3081
合作关系	-11.3081
辅	-11.3081
分别上涨	-11.3081
见本报告最后部分	-11.3084
摄	-11.3085
497	-11.3085
除此之外	-11.3085
环比下跌	-11.3086
;4)	-11.3087
娟	-11.3088
657	-11.3088
▁152	-11.3089
炼焦煤	-11.3089
22.0	-11.309
res	-11.3091
7.81	-11.3092
415	-11.3092
海上	-11.3093
冲突	-11.3093
坚挺	-11.3093
1,8	-11.3094
▁176	-11.3097
8.17	-11.3097
ta	-11.3097
的形式	-11.3099
化工行业	-11.3099
不少于	-11.31
di	-11.3103
据此	-11.3103
核心业务	-11.3104
总体来看	-11.3105
940	-11.3106
我们预计未来	-11.3106
仕	-11.3107
送股	-11.3109
▁平均	-11.311
基础化工	-11.311
内的	-11.311
沟	-11.3111
音频	-11.3111
稳中	-11.3113
服务费	-11.3114
557	-11.3114
1990	-11.3115
发行人的	-11.3117
286	-11.3117
州市	-11.3119
未知	-11.312
9.85	-11.312
涨幅介于	-11.3121
494	-11.3122
9.88	-11.3122
账号	-11.3124
中文	-11.3124
等情况	-11.3124
的方向	-11.3126
8.09	-11.3126
763	-11.3127
▁196	-11.3127
商户	-11.3128
屏幕	-11.3129
7.66	-11.3131
了一个	-11.3132
企业发展	-11.3132
7.96	-11.3133
8.72	-11.3134
干扰	-11.3134
操作系统	-11.3134
021-38565	-11.3134
如有需要	-11.3134
流水	-11.3134
0.39%	-11.3135
▁简称	-11.3135
寒	-11.3136
46%	-11.3136
下限	-11.3137
8.42	-11.3138
管理有限公司	-11.3138
苯	-11.3138
报告观点客观性的潜在利益冲突	-11.3139
7.51	-11.3142
经典	-11.3142
7.79	-11.3144
▁有关分析师的申明	-11.3145
992	-11.3145
闲置	-11.3146
合法有效	-11.3146
当事人	-11.3146
9.14	-11.3146
会议通知	-11.3148
▁0.7%	-11.3149
领取	-11.315
GMV	-11.3152
7.64	-11.3152
条例	-11.3154
后部分	-11.3154
年均	-11.3154
▁yang	-11.3154
重复	-11.3155
wen	-11.3155
服務	-11.3155
跟踪报告	-11.3156
7.63	-11.3158
均价为	-11.3159
▁查看更多	-11.316
十条	-11.316
的持续	-11.3161
8.68	-11.3161
瀚	-11.3161
8.19	-11.3161
跟进	-11.3162
0.80%	-11.3163
公司主营业务	-11.3166
点位	-11.3166
▁10.5	-11.3167
下沉	-11.3167
趣	-11.3167
您的投资代表联系	-11.3168
或请与	-11.3168
▁HKD	-11.3169
▁医药	-11.3172
年半年度报告	-11.3173
正确	-11.3173
▁1.08	-11.3174
订	-11.3176
对未来	-11.3176
767	-11.3176
7.73	-11.3176
衡量	-11.3179
8.76	-11.318
主力资金	-11.318
公司营收	-11.3181
攻	-11.3181
地下	-11.3182
正极材料	-11.3183
7.54	-11.3183
μ	-11.3183
主要客户	-11.3185
成交价	-11.3185
昆	-11.3187
Si	-11.3187
英镑	-11.3187
877	-11.3188
yuan	-11.3189
的支持	-11.3189
7.83	-11.319
9.12	-11.3191
9.35	-11.3191
不涉及	-11.3192
或三板做市指数	-11.3197
508	-11.3198
整机	-11.3198
科目	-11.3198
323	-11.3199
道指	-11.3199
8.07	-11.32
服务能力	-11.32
2019-04	-11.3202
营收占比	-11.3202
股东大会召开	-11.3204
散户	-11.3204
▁11:	-11.3204
qh	-11.3206
多地	-11.3208
京津冀	-11.3208
9.24	-11.3209
保守	-11.321
▁0.8%	-11.3211
口碑	-11.3214
8.38	-11.3219
9.68	-11.3219
蛋	-11.322
7.47	-11.3221
9.65	-11.3222
9.23	-11.3223
7.53	-11.3225
yan	-11.3225
向全体股东每	-11.3226
8.63	-11.3229
9.29	-11.3229
不多	-11.323
大成	-11.323
▁山西	-11.3231
误	-11.3232
多样化	-11.3232
▁请务必阅读正文之后的	-11.3232
技术上	-11.3233
董秘问答	-11.3233
▁议案	-11.3235
亿吨	-11.3235
拼多多	-11.3236
878	-11.3237
8.64	-11.3238
:______________	-11.3238
▁1.07	-11.3238
8.12	-11.3241
向公司	-11.3243
是以	-11.3244
储量	-11.3245
生态圈	-11.3246
上期所	-11.3247
7.59	-11.3248
来临	-11.3248
Brent	-11.325
▁450	-11.3251
简评	-11.3253
耗材	-11.3254
才是	-11.3254
▁计提比例	-11.3256
8.78	-11.3256
披露了	-11.3258
季调	-11.3258
放在	-11.3258
697	-11.3259
小家电	-11.3259
8.62	-11.3259
0.42%	-11.326
个人观点	-11.326
---	-11.326
大幅上升	-11.3262
稀缺	-11.3263
商城	-11.3263
凭证	-11.3264
癌	-11.3264
公司召开	-11.3264
饮	-11.3267
期限内	-11.3268
相比于	-11.3268
辅导	-11.3268
化肥	-11.3271
兴证	-11.3271
经营现金流	-11.3271
▁非流动负债合计	-11.3271
237	-11.3272
的状态	-11.3273
的增加	-11.3275
▁广发	-11.3276
458	-11.3276
8.36	-11.3276
泸州老窖	-11.3277
琳	-11.3277
9.55	-11.3278
8.92	-11.3279
8.03	-11.3279
▁6.3	-11.3279
归还	-11.3281
含量	-11.3283
凭	-11.3283
242	-11.3284
的态度	-11.3284
第一名	-11.3285
赴	-11.3286
8.99	-11.3286
降本增效	-11.3287
811	-11.3287
准入	-11.3287
▁that	-11.3288
的基本	-11.3289
家族	-11.329
显然	-11.3292
業務	-11.3292
芝	-11.3292
CM	-11.3292
9.51	-11.3294
各级	-11.3294
这将	-11.3294
单边	-11.3296
大单	-11.3297
459	-11.3298
/2/1	-11.3299
的重点	-11.3301
se	-11.3302
节能环保	-11.3302
冯	-11.3303
可选消费	-11.3304
548	-11.3305
江南	-11.3305
▁8.	-11.3306
油田	-11.3306
有所下滑	-11.3307
抛	-11.3308
▁121	-11.3309
披露见分析师申明之	-11.3309
开源	-11.331
348	-11.3311
359	-11.3311
9.07	-11.3311
入口	-11.3311
履行职责	-11.3312
1~	-11.3312
9.03	-11.3312
表态	-11.3314
▁4.9	-11.3318
757	-11.3319
持仓比例	-11.3322
▁年起	-11.3323
乃至	-11.3323
493	-11.3324
–	-11.3325
严格的	-11.3326
的利益	-11.3326
8.44	-11.3327
及其子公司	-11.3327
联邦	-11.3328
20:	-11.3328
9.45	-11.3329
▁010-8	-11.333
适	-11.333
/4/1	-11.3332
要求的	-11.3332
▁27%	-11.3334
▁IC	-11.3334
放宽	-11.3335
区分	-11.3336
-0.5	-11.3337
9.13	-11.334
▁百万	-11.334
48%	-11.3341
德邦研究所	-11.3341
9.62	-11.3341
刷	-11.3341
597	-11.3343
公告显示	-11.3343
2018-03	-11.3344
0.75%	-11.3345
287	-11.3345
▁28%	-11.3346
變動	-11.3346
8.32	-11.3346
管理体系	-11.3348
总股本的	-11.3349
扩充	-11.3349
对子公司	-11.3349
463	-11.335
587	-11.3351
ap	-11.3351
下挫	-11.3353
▁-40%	-11.3353
酯	-11.3354
0.50%	-11.3355
墨西哥	-11.3356
财年	-11.3356
3,000.00	-11.3357
9.93	-11.3357
事项的	-11.3357
1905	-11.3357
公益	-11.3358
8.82	-11.3358
法规和	-11.336
经营模式	-11.336
十七	-11.3361
先进的	-11.3361
很可能	-11.3363
闪	-11.3364
都将	-11.3367
并请阅读本证券	-11.3367
党委书记	-11.3367
4%。	-11.3369
研究报告最后一页的免责申明	-11.3369
9.91	-11.3369
银行存款	-11.337
▁20000	-11.3371
银行贷款	-11.3373
食品安全	-11.3373
存在一定	-11.3374
重申	-11.3375
在上述	-11.3375
9.16	-11.3376
国联证券	-11.3377
41%	-11.3378
9.26	-11.3378
调味品	-11.3379
023	-11.3383
PV	-11.3385
8.96	-11.3386
▁-0.4	-11.3386
▁指数表现	-11.3387
可能在	-11.3388
首创	-11.3389
纯债	-11.3392
盘整	-11.3393
8.49	-11.3393
867	-11.3395
:2014	-11.3396
工程有限公司	-11.3396
也不保证所包含的信息和建议不会	-11.3397
占出席会议所有股东所持股份的	-11.3398
1900	-11.3398
20000	-11.3398
总额的	-11.3399
▁0006	-11.34
英特尔	-11.34
的关联交易	-11.3402
最后一	-11.3406
美联储加息	-11.3407
8.57	-11.3408
成本优势	-11.3409
提升公司	-11.3409
013	-11.3411
投顾	-11.3413
472	-11.3413
避险	-11.3414
年年报	-11.3414
五个	-11.3414
相关议案	-11.3415
添	-11.3415
9.94	-11.3416
2018-04	-11.3416
▁升	-11.3416
8.81	-11.3417
8.84	-11.3418
▁余	-11.3418
力求独立	-11.3419
风险控制	-11.3419
等原因	-11.3422
(2014	-11.3422
8.71	-11.3422
关于召开	-11.3423
深证	-11.3423
8.52	-11.3424
社会责任	-11.3427
号楼	-11.3428
贺	-11.3429
吕	-11.3429
入围	-11.343
8.51	-11.343
业务模式	-11.3431
321	-11.3434
▁兴盛之源	-11.3435
▁-13	-11.3436
重大影响	-11.3436
较为明显	-11.3439
指示	-11.3439
生鲜	-11.3439
能源化工	-11.3439
8.46	-11.344
558	-11.344
公开资料	-11.3445
9.89	-11.3445
9%,	-11.3446
电路	-11.3446
关联董事	-11.3447
968	-11.3447
两融	-11.3447
宾	-11.3449
▁工业	-11.345
天数	-11.3452
更快	-11.3452
▁林	-11.3455
▁Pro	-11.3456
▁亿港元	-11.3456
347	-11.3456
资金净流入	-11.3459
集团的	-11.346
★★★	-11.3461
发展机遇	-11.3461
756	-11.3461
咖啡	-11.3461
缘	-11.3462
体制	-11.3462
9.38	-11.3463
高价	-11.3463
8.97	-11.3467
已经开始	-11.3468
净融资	-11.3468
部门规章	-11.347
▁16:	-11.347
快速提升	-11.3471
▁可供出售金融资产	-11.3471
复合材料	-11.3471
高速发展	-11.3475
对公司的	-11.3475
7.57	-11.3476
367	-11.3478
9.27	-11.348
总价	-11.3482
9.78	-11.3482
汇添富	-11.3482
提出的	-11.3482
相关产品	-11.3482
铜矿	-11.3483
股权的	-11.3485
no	-11.3486
军事	-11.3486
325	-11.3488
8.58	-11.3489
(2018	-11.3489
生存	-11.349
8.66	-11.3491
东部	-11.3491
Co	-11.3491
8.74	-11.3491
457	-11.3491
大量的	-11.3492
9.72	-11.3492
日期间	-11.3493
▁161	-11.3493
9.76	-11.3495
产能过剩	-11.3495
会计期间	-11.3496
SS	-11.3496
▁2016.	-11.3496
0.45%	-11.3498
有望继续	-11.3499
实现归属于上市公司股东的净利润	-11.35
轿车	-11.35
为此	-11.35
▁2022-11	-11.3502
9.66	-11.3503
AM	-11.3503
9.17	-11.3506
(2020	-11.3506
艘	-11.3507
保持平稳	-11.3511
ies	-11.3512
▁东方财智	-11.3513
六个月	-11.3513
规模的	-11.3514
8.56	-11.3515
利用率	-11.3515
国信证券	-11.3516
539	-11.3517
582	-11.3518
旗下的	-11.3519
量价齐升	-11.3523
2019-06	-11.3524
▁198	-11.3524
chen	-11.3525
价位	-11.3527
部委	-11.3527
下调至	-11.3528
6%。	-11.3528
9.52	-11.3528
受制于	-11.3529
401	-11.3531
试剂	-11.3532
9.19	-11.3533
兴业银行	-11.3533
▁以下是	-11.3534
人民币元	-11.3535
这么	-11.3535
0%。	-11.3536
;3、	-11.3536
0.41%	-11.3536
直至	-11.3537
直流	-11.3541
OR	-11.3541
8.34	-11.3542
263	-11.3542
发言	-11.3542
▁盈利能力	-11.3543
462	-11.3545
国联证券研究所	-11.3545
-20%	-11.3545
哪	-11.3545
逆势	-11.3545
市场有风险	-11.3546
8.87	-11.3546
逢低	-11.3546
生猪养殖	-11.3547
化学品	-11.3548
蔬菜	-11.3549
779	-11.3549
8.39	-11.3549
▁0027	-11.355
▁7.5	-11.3551
0.47%	-11.3552
项目投资	-11.3552
醋酸	-11.3554
▁敬请参阅报告结尾处的免责声明	-11.3554
8.59	-11.3555
际	-11.3555
▁PPI	-11.3558
部分地区	-11.3558
663	-11.3558
254	-11.356
环比增速	-11.3562
▁厦门	-11.3563
逐年	-11.3563
伙伴	-11.3563
该议案	-11.3564
▁17:	-11.3564
回撤	-11.3566
山西省	-11.3568
打压	-11.3569
8.41	-11.3569
屠宰	-11.357
故事	-11.357
供水	-11.357
相对稳定	-11.3571
终端需求	-11.3571
扩建	-11.3573
一场	-11.3573
报告意见及建议不一致的市场评论和	-11.3573
网下	-11.3574
遭	-11.3575
的限制	-11.3575
美国的	-11.3576
联通	-11.3577
贯彻落实	-11.3578
美的集团	-11.3578
8.73	-11.3579
航空航天	-11.3582
271	-11.3582
RB	-11.3585
所有权	-11.3585
▁Y	-11.3588
等因素影响	-11.3592
在即	-11.3592
主要财务数据	-11.3593
8.79	-11.3594
BC	-11.3595
有所上升	-11.3596
▁	-11.3596
搬迁	-11.3597
▁from	-11.3599
9.81	-11.3599
▁210	-11.36
8.91	-11.3601
UK	-11.3602
0.44%	-11.3602
开店	-11.3606
体系建设	-11.3607
菲律宾	-11.3607
需求旺盛	-11.3608
骨干	-11.3609
8.77	-11.3611
754	-11.3614
税费	-11.3614
拟以	-11.3616
西部证券研发中心	-11.3617
▁141	-11.3617
分支机构	-11.3618
8.69	-11.362
▁应收账款周转率	-11.3621
0.46%	-11.3621
公司财报	-11.3622
外销	-11.3622
不影响	-11.3622
8.47	-11.3623
能力的	-11.3624
cicc	-11.3624
8.67	-11.3624
8.94	-11.3624
改制	-11.3628
379	-11.3628
9.71	-11.3629
的竞争	-11.363
定制化	-11.3631
席	-11.3632
BI	-11.3632
埃	-11.3632
562	-11.3632
中信建投期货	-11.3634
缩	-11.3634
▁CE	-11.3634
9.32	-11.3636
In	-11.3637
▁行业报告	-11.3637
旺盛	-11.3637
公开市场	-11.3638
国开债	-11.3639
one	-11.3639
SD	-11.364
0.70%	-11.364
▁173	-11.364
2018-2020	-11.3641
8.43	-11.3644
锁	-11.3644
钼	-11.3645
▁河北	-11.3645
▁2022-08	-11.3645
元宇宙	-11.3645
可以看到	-11.3645
当季	-11.3646
上一	-11.3647
9.58	-11.3647
新政	-11.3649
批量	-11.3651
▁成交量	-11.3652
8.86	-11.3653
碧桂园	-11.3653
细节	-11.3653
▁此报告	-11.3653
639	-11.3653
搞	-11.3654
折合	-11.3654
格式	-11.3655
▁股东	-11.3656
六大	-11.3656
疆	-11.3657
SE	-11.3657
的服务	-11.3658
9.86	-11.3659
降低了	-11.3659
0.43%	-11.3661
证券交易	-11.3661
器材	-11.3661
8.61	-11.3663
策略报告	-11.3663
条规定	-11.3663
心理	-11.3664
▁信	-11.3664
762	-11.3666
西南证券整理	-11.3667
综合性	-11.3667
清晰准确地反映了作者的研究观点	-11.3667
609	-11.3667
关联机构	-11.3668
的专业	-11.3669
768	-11.3671
0.53%	-11.3672
PCR	-11.3672
也没有	-11.3673
▁d	-11.3673
重大项目	-11.3674
胎	-11.3674
一款	-11.3675
中电	-11.3675
但文中的观点	-11.3677
给予公司	-11.3678
的信心	-11.3678
解除质押	-11.3679
▁美分	-11.368
9.59	-11.3681
9.44	-11.3684
▁151	-11.3684
优良	-11.3685
ia	-11.3686
事先书面授权	-11.3687
本次非公开发行股票	-11.3689
▁2022-10	-11.3691
ub	-11.3691
首位	-11.3692
法案	-11.3692
滚	-11.3693
的最大	-11.3695
增仓	-11.3696
的角度	-11.3697
0.48%	-11.3697
财税	-11.3697
菜籽	-11.3697
▁2.0%	-11.3698
总库存	-11.3698
限购	-11.3698
▁长城证券	-11.37
未来几年	-11.37
9.74	-11.37
23:	-11.3701
适时	-11.3702
源于	-11.3702
数控	-11.3703
▁经营活动产生的现金流量净额	-11.3704
▁附件	-11.3704
8.93	-11.3706
ce	-11.3706
-01-04	-11.3707
融券方面	-11.3709
▁年初至今	-11.371
9.84	-11.371
不得超过	-11.371
的长期	-11.3712
近月	-11.3714
的数量	-11.3714
9.82	-11.3714
股东大会决议	-11.3715
8.54	-11.3717
447	-11.3719
▁料	-11.372
30.00	-11.372
9.61	-11.3721
-0.3	-11.3722
▁1.15	-11.3722
753	-11.3725
占出席会议中小股东所持股份的	-11.3726
饰	-11.3726
506	-11.3727
897	-11.3729
专业的	-11.3729
。2014	-11.373
绩	-11.3731
综述	-11.3731
参会	-11.3732
▁1.09	-11.3733
国际油价	-11.3733
》”)	-11.3733
分别达到	-11.3733
正文	-11.3733
重点领域	-11.3733
营业外支出	-11.3738
99%	-11.3738
15.0	-11.374
美分	-11.374
我们维持	-11.3741
635	-11.3741
本科	-11.3741
热轧	-11.3744
▁liu	-11.3745
9.79	-11.3745
导入	-11.3747
陵	-11.3747
楼盘	-11.3748
0518	-11.3748
988	-11.3749
▁现任	-11.375
ers	-11.375
▁6,6	-11.3751
361	-11.3752
工人	-11.3752
通过深圳证券交易所	-11.3753
将通过	-11.3756
长安汽车	-11.3756
561	-11.3758
请求	-11.3759
0521	-11.3761
方正证券	-11.3761
大致	-11.3763
开放式	-11.3763
税后	-11.3764
防水	-11.3765
倍数	-11.3765
798	-11.3767
402	-11.3767
▁225	-11.3767
0.49%	-11.3768
复工复产	-11.3769
682	-11.3769
9.34	-11.3769
充分利用	-11.377
可能性	-11.3771
▁2021-11	-11.3771
诉求	-11.3773
▁本报告的版权归本公司所有	-11.3773
法律责任	-11.3774
中欧	-11.3774
此时	-11.3775
日常关联交易	-11.3776
早在	-11.3777
失效	-11.3778
▁看淡	-11.3779
免责声明及其项下所有内容	-11.378
下载	-11.3782
8.83	-11.3782
龙虎榜	-11.3783
金融危机	-11.3785
华安	-11.3786
漫	-11.3787
阀	-11.3788
0.51%	-11.3788
安全边际	-11.3789
9.48	-11.3789
激	-11.3792
▁住所	-11.3793
▁2021-12	-11.3794
成分股	-11.3795
9.69	-11.3795
▁182	-11.3795
▁家公司	-11.3796
863	-11.3796
股份有限公司关于	-11.3797
432	-11.3799
▁6-12	-11.3799
未有	-11.38
2018-07	-11.3806
看点	-11.3808
等有关规定	-11.381
442	-11.381
累计值	-11.3811
得出	-11.3813
发表或引用	-11.3813
▁IF	-11.3814
投资建议的评级标准	-11.3816
淘	-11.3817
546	-11.3818
html	-11.3819
购物中心	-11.382
▁1.5%	-11.3821
委托贷款	-11.3821
10.0	-11.3823
丙	-11.3824
▁195	-11.3824
9.42	-11.3825
▁6,000	-11.3825
嘉兴	-11.3825
9.77	-11.3826
以上信息仅供参考	-11.3829
高度重视	-11.3829
浦发银行	-11.383
倒挂	-11.383
▁-14	-11.383
驾驶	-11.3831
9.83	-11.3832
▁财年	-11.3833
两项	-11.3833
2018-06	-11.3837
8.53	-11.3837
2015-0	-11.384
管理团队	-11.3841
584	-11.3841
较年初	-11.3843
第一大股东	-11.3844
om	-11.3844
金融业	-11.3844
期货收盘价	-11.3845
星期五	-11.3846
515	-11.3847
IS	-11.3848
QE	-11.3849
十六	-11.3849
正增长	-11.385
指令	-11.3851
9.64	-11.3853
▁万手	-11.3854
EC	-11.3854
交易额	-11.3854
大类	-11.3855
SM	-11.3856
me	-11.3856
数为	-11.3857
▁174	-11.3858
邓	-11.3859
看多	-11.3859
开关	-11.386
ut	-11.386
9.36	-11.3861
592	-11.3861
0.56%	-11.3862
MS	-11.3863
石脑油	-11.3863
865	-11.3863
股票代码	-11.3864
新媒体	-11.3864
就可以	-11.3866
推介	-11.3866
884	-11.3866
2022-2024	-11.3866
在上海	-11.3867
它的	-11.3868
9.33	-11.3868
▁ST	-11.3868
DAX	-11.3869
个项目	-11.387
1,500	-11.387
美金	-11.387
758	-11.3871
23.0	-11.3871
的观点和判断	-11.3872
8.37	-11.3873
节目	-11.3873
Choice	-11.3876
发展阶段	-11.3878
权益工具	-11.3879
1909	-11.3882
547	-11.3882
提升空间	-11.3882
先生为公司	-11.3883
保利	-11.3883
邮箱	-11.3883
惠州	-11.3885
低温	-11.3886
监督管理	-11.3886
▁270	-11.3888
替	-11.3888
50.0	-11.3891
阅	-11.3891
认识	-11.3891
市场主体	-11.3892
广大投资者	-11.3896
族	-11.3898
24:	-11.3898
短期来看	-11.3899
诊疗	-11.3899
年起	-11.39
▁利	-11.39
的因素	-11.39
▁6,7	-11.3901
▁执业编号	-11.3902
符合条件的	-11.3902
▁非银金融	-11.3903
谋	-11.3903
公寓	-11.3904
▁2021-10	-11.3905
381	-11.3906
机型	-11.3907
供热	-11.3908
到底	-11.3908
2017201820192020	-11.3908
华鑫证券	-11.3909
经济技术开发区	-11.391
两周	-11.391
不断完善	-11.3911
9.63	-11.3912
0.52%	-11.3914
十二五	-11.3915
环比持平	-11.3916
足够	-11.3916
是什么	-11.3917
(3)	-11.3918
▁	-11.392
574	-11.3921
发行利率	-11.3922
▁股票评级	-11.3922
入场	-11.3922
832	-11.3922
工商银行	-11.3922
434	-11.3924
访问	-11.3926
特钢	-11.3926
本计划	-11.3926
1600	-11.3926
USDA	-11.3929
▁递延所得税资产	-11.393
63%	-11.3931
cmschina	-11.3933
通胀预期	-11.3933
302	-11.3934
9.73	-11.3934
考验	-11.3934
投资方	-11.3936
宝马	-11.3936
9.67	-11.3937
死亡	-11.3937
536	-11.3938
振幅	-11.3939
粕	-11.3942
墨	-11.3943
9.56	-11.3944
实业有限公司	-11.3945
混合型	-11.3945
9.49	-11.3945
61%	-11.3946
▁5.6	-11.3946
浙商	-11.3946
▁无担保	-11.3946
高水平	-11.3947
开立	-11.3947
经审计的	-11.3947
2200	-11.3947
05-	-11.3949
▁账龄	-11.3952
59%	-11.3952
闽	-11.3952
个工作日	-11.3954
较低的	-11.3955
贯彻	-11.3959
▁6,8	-11.3959
实控人	-11.396
据此操作风险自担	-11.396
889	-11.3961
非银	-11.3962
387	-11.3963
▁罗	-11.3963
首创证券	-11.3965
恢复至	-11.3965
彬	-11.3967
成为了	-11.3967
▁2021-09	-11.3968
钢管	-11.3969
沪市	-11.3969
和管理	-11.397
-03-31	-11.3971
▁1,500	-11.3972
▁关	-11.3972
石油石化	-11.3973
最具	-11.3974
影片	-11.3974
FDA	-11.398
更有	-11.3981
均不构成对任何人的投资建议	-11.3982
单项	-11.3984
授予日	-11.3984
本报告的任何部分均不得以任何	-11.3984
機	-11.3984
股东大会审议	-11.3986
纯电动	-11.3987
就能	-11.3988
pe	-11.399
保留一切权利	-11.3991
648	-11.3992
产生影响	-11.3995
683	-11.3995
經濟	-11.3996
0.58%	-11.3997
元素	-11.3997
中粮	-11.3999
谱	-11.3999
气候	-11.4001
威胁	-11.4002
▁注册地址	-11.4002
配备	-11.4002
股份支付	-11.4003
成长股	-11.4004
战略布局	-11.4004
令人	-11.4005
▁230	-11.4005
9.31	-11.4007
公交	-11.4008
乱	-11.4008
低风险	-11.4008
低配	-11.4009
已进入	-11.4009
969	-11.401
▁6,9	-11.401
837	-11.4011
9.41	-11.4011
持续经营	-11.4011
堡	-11.4011
号线	-11.4011
214	-11.4012
少量	-11.4012
投诉	-11.4015
接口	-11.4015
▁260	-11.4016
▁1.12	-11.4017
全行业	-11.4017
智能驾驶	-11.4017
提问	-11.4019
9.57	-11.4019
▁年至今	-11.4021
芜湖	-11.4022
返还	-11.4027
拖	-11.4027
jia	-11.403
前的	-11.403
占出席会议	-11.403
▁股票投资评级	-11.403
633	-11.4031
酷	-11.4031
908	-11.4032
密切关注	-11.4032
振兴	-11.4035
缩量	-11.4035
la	-11.4037
▁本公司董事会及全体董事保证	-11.4037
业绩弹性	-11.4038
684	-11.4039
▁净	-11.404
银行借款	-11.4041
不与	-11.4043
短期借款	-11.4043
双向	-11.4043
市场回顾	-11.4044
一级市场	-11.4045
新三板市场以三板成指	-11.4046
▁北京市	-11.4047
vs	-11.4048
风险因素	-11.4048
快讯	-11.4049
0.55%	-11.405
▁Jul	-11.405
前次	-11.405
参股公司	-11.4051
035	-11.4054
649	-11.4054
▁6,0	-11.4056
产能扩张	-11.4057
SL	-11.4058
▁(8)	-11.4061
仍然是	-11.4063
计算机行业	-11.4063
场地	-11.4064
765	-11.4064
构筑	-11.4064
3-4	-11.4065
江西省	-11.4066
▁应收票据	-11.4067
相关法律	-11.4068
▁2022-09	-11.4068
迅	-11.4069
彦	-11.4069
低开	-11.4069
▁铝	-11.407
583	-11.407
减少了	-11.4071
隐含波动率	-11.4072
▁11.5	-11.4074
锂离子电池	-11.4074
标配	-11.4075
环比上周	-11.4075
偏离	-11.4076
等相关规定	-11.4078
▁184	-11.4079
背	-11.4079
周涨跌幅	-11.4079
806	-11.408
数据的	-11.4081
0.54%	-11.4083
672	-11.4084
概览	-11.4084
一名	-11.4085
▁请务必阅读	-11.4086
9.87	-11.4086
ir	-11.4086
▁为了	-11.4086
最新的	-11.4086
▁郭	-11.4087
▁f	-11.4087
约定的	-11.4088
涨势	-11.4088
▁投资净收益	-11.4088
673	-11.409
17.5	-11.4091
表述	-11.4092
0.65%	-11.4092
政府工作报告	-11.4092
▁6,5	-11.4093
询	-11.4094
▁通	-11.4094
仍存	-11.4094
1400	-11.4095
501	-11.4097
关联人	-11.4097
664	-11.4099
PI	-11.4101
7%。	-11.4101
的不断	-11.4101
外卖	-11.4102
9.37	-11.4102
报告期内公司	-11.4103
的波动	-11.4104
并由	-11.4106
瑞士	-11.4106
创历史新高	-11.4107
▁15.0	-11.4107
564	-11.4107
▁数量	-11.4108
资产评估报告	-11.4109
投资总额	-11.4109
的金融资产	-11.4109
乳制品	-11.4109
牧	-11.411
975	-11.4111
到本报告而视其为本公司的当然客户	-11.4111
合力	-11.4112
了解到	-11.4112
▁1.25	-11.4116
扣除非经常性损益后	-11.4116
减持计划	-11.4116
开发有限公司	-11.4116
LCD	-11.4117
万户	-11.4118
微电子	-11.4119
1601	-11.412
NB	-11.4122
交易人员以及其他	-11.4122
882	-11.4123
高开	-11.4123
563	-11.4123
联想	-11.4124
孩子	-11.4125
困境	-11.4126
上年	-11.4127
融资买入额	-11.4128
356	-11.4128
坐	-11.4129
9.46	-11.413
代工	-11.413
▁股东大会	-11.413
858	-11.4131
的品牌	-11.4132
的确定	-11.4136
爱奇艺	-11.4136
885	-11.4137
保有量	-11.4138
▁-100	-11.4138
已经在	-11.414
371	-11.4141
0.71%	-11.4141
相结合	-11.4141
维稳	-11.4141
9.54	-11.4141
这类	-11.4143
▁2.2.	-11.4144
9.53	-11.4145
云平台	-11.4146
市场对于	-11.4147
经济效益	-11.4148
▁group	-11.4149
偏强	-11.415
发生了	-11.4151
但随着	-11.4153
批次	-11.4156
路证券营业部	-11.4156
8%。	-11.4158
资金流入	-11.4159
▁年报	-11.4159
劳动力	-11.416
801	-11.4161
9.39	-11.4162
通过了	-11.4166
在法律允许的情况下	-11.4166
241	-11.417
广阔	-11.4171
549	-11.4171
补充协议	-11.4172
的城市	-11.4173
▁预付账款	-11.4177
互联互通	-11.418
或其相关人员可能存在影响本	-11.4181
▁-0.01	-11.4181
里程	-11.4185
▁7.0	-11.4188
▁50.00	-11.4189
全球市场	-11.419
797	-11.419
转股价格	-11.419
的有效	-11.4191
一轮	-11.4191
保荐	-11.4192
833	-11.4192
319	-11.4194
股份总数	-11.4194
735	-11.4199
▁2023-05	-11.4199
海关总署	-11.4201
上海证券交易所网站	-11.4201
三线城市	-11.4201
预留	-11.4203
表决情况	-11.4204
股價	-11.4205
铂	-11.4205
该等信息	-11.4206
现将	-11.4206
国民经济	-11.4207
疫情反复	-11.4207
不利影响	-11.4208
通信行业	-11.4209
▁青岛	-11.421
895	-11.4211
高档	-11.4211
中华人民共和国证券法	-11.4212
公司实现	-11.4213
2017-12	-11.4213
更低	-11.4213
▁年至	-11.4214
▁193	-11.4214
存在不确定性	-11.4215
报告期末	-11.4215
845	-11.4216
ERP	-11.4216
0.66%	-11.4219
SHFE	-11.4219
东吴证券	-11.422
▁股市场以沪深	-11.422
亮相	-11.422
重塑	-11.4221
运费	-11.4221
开发的	-11.4221
▁投资性房地产	-11.4223
391	-11.4223
复核	-11.4224
收敛	-11.4225
243	-11.4225
激活	-11.4225
一直在	-11.4226
并非作为或被视为出售或购买证券	-11.4226
加强对	-11.4226
▁5.00%	-11.4227
709	-11.4228
第二个	-11.423
▁6.8	-11.4232
劳	-11.4232
投资基金	-11.4233
▁510	-11.4233
女性	-11.4234
注明	-11.4234
第四届董事会	-11.4235
为核心的	-11.4236
仪式	-11.4237
在北京时间	-11.4239
0.61%	-11.4242
彻底	-11.4242
智能汽车	-11.4242
三种	-11.4243
的格局	-11.4243
2012-0	-11.4244
786	-11.4244
光伏电站	-11.4245
0.63%	-11.4245
确立	-11.4247
▁197	-11.4248
回升至	-11.4248
769	-11.425
▁格	-11.425
适应症	-11.4252
-0.4	-11.4252
夜盘	-11.4253
公司是	-11.4254
飞行	-11.4254
-06-30	-11.4255
唯	-11.4255
625	-11.4257
告诉	-11.4258
▁除了	-11.4258
▁组合中	-11.4259
Re	-11.426
较上年同期增长	-11.426
0.59%	-11.4261
原始	-11.4261
产量为	-11.4262
据了解	-11.4262
在任何时候均不构成对任何人的个人	-11.4264
PageTop	-11.4264
信用评级	-11.4264
▁20,000	-11.4264
0.68%	-11.4266
793	-11.4266
二者	-11.4271
官员	-11.4272
end	-11.4272
47%	-11.4272
乳业	-11.4275
命	-11.4275
光明	-11.4276
68%	-11.4278
▁0.9%	-11.4279
995	-11.4279
为何	-11.4281
LOF	-11.4281
055	-11.4282
洗衣机	-11.4284
637	-11.4285
当日融资买入	-11.4285
1901	-11.4285
远低于	-11.4286
融资渠道	-11.4289
的增速	-11.429
我们认为公司	-11.429
基本上	-11.4293
是为了	-11.4295
▁172	-11.4296
2700	-11.4296
▁6,4	-11.4296
下来	-11.4297
成熟的	-11.4298
9.47	-11.4298
3200	-11.4301
481	-11.4302
法律意见书	-11.4303
相关资产	-11.4303
的高	-11.4304
2600	-11.4305
ine	-11.4305
沪胶	-11.4305
▁10.00%	-11.4307
▁票数	-11.4309
衍生	-11.4309
净卖出	-11.4309
排名第	-11.431
划分为	-11.431
规章	-11.4312
改革开放	-11.4312
443	-11.4313
▁马	-11.4313
公司毛利率	-11.4313
632	-11.4316
石家庄	-11.4316
客户需求	-11.4317
标准的	-11.4319
▁百	-11.4319
985	-11.432
打新	-11.432
有望进一步	-11.4321
减免	-11.4321
行业平均	-11.4323
695	-11.4325
———————————————	-11.4325
os	-11.4327
/10/1	-11.4329
财务顾问法	-11.4329
0.57%	-11.433
驱动力	-11.4333
相关内容	-11.4334
低端	-11.4334
利润表	-11.4334
希腊	-11.4335
赞	-11.4336
一段时间	-11.4336
相关人员	-11.4339
▁5.8	-11.434
700.00	-11.4341
坡	-11.4342
比特币	-11.4342
摘	-11.4343
代表性	-11.4343
琦	-11.4344
▁29%	-11.4345
首选	-11.4345
079	-11.4345
▁ZL	-11.4345
▁城投	-11.4346
兼顾	-11.4347
874	-11.4347
陈述	-11.4347
工程施工	-11.4347
3.33%	-11.4349
▁获利能力	-11.435
(6004	-11.4351
年第一季度	-11.4351
▁6,3	-11.4353
集合	-11.4355
動	-11.4356
報告	-11.4361
外包	-11.4361
573	-11.4361
企業	-11.4361
人力	-11.4364
投资目的	-11.4365
贴现	-11.4367
土壤	-11.4368
相反	-11.4369
双双	-11.4369
景观	-11.437
笑	-11.437
太阳	-11.4372
消费者的	-11.4372
cheng	-11.4373
成型	-11.4376
应收票据	-11.4376
赚钱	-11.4377
宝城期货	-11.4377
-01-01	-11.4377
▁11.4	-11.4378
261	-11.4379
习惯	-11.438
▁芯片	-11.438
股权质押	-11.438
▁独立董事	-11.4381
GS	-11.4381
2014-0	-11.4383
0.67%	-11.4383
头寸	-11.4383
▁10.8	-11.4385
▁1.13	-11.4385
▁Ф	-11.4386
前海	-11.4388
个月的	-11.4388
机动车	-11.439
中原证券	-11.4391
营业收入为	-11.4391
▁1.11	-11.4391
761	-11.4391
▁国债	-11.4394
25:	-11.4396
DI	-11.4396
投资者对	-11.4397
前一交易日	-11.44
土耳其	-11.4402
▁本报告期	-11.4402
80,000	-11.4405
高位震荡	-11.4405
数值	-11.4406
856	-11.4409
291	-11.441
履约	-11.441
週	-11.441
版权所有	-11.4411
盘口异	-11.4411
▁摘要	-11.4413
▁0.01%	-11.4415
价值的	-11.4416
用电量	-11.4417
▁月中旬	-11.4417
收益率曲线	-11.442
动快照	-11.4421
中国建筑	-11.4421
NO	-11.4422
Industry	-11.4422
自贸区	-11.4422
739	-11.4422
ig	-11.4423
最快	-11.4423
CL	-11.4424
782	-11.4424
金融风险	-11.4425
持续发展	-11.4426
巢	-11.4426
存单	-11.4426
公司管理层	-11.4428
军用	-11.4429
召集人	-11.4431
其他股东	-11.4431
三月	-11.4433
服务标识及标记	-11.4434
总数的	-11.4434
▁2026	-11.4435
赛事	-11.4436
1801	-11.4436
添加	-11.4437
的基金	-11.4437
酶	-11.4438
挂钩	-11.4438
之前的	-11.4438
制程	-11.4438
单抗	-11.4439
554	-11.4442
板块估值	-11.4442
1.25%	-11.4444
不对	-11.4445
增速分别为	-11.4445
学术	-11.4446
ry	-11.445
感谢	-11.4451
900.00	-11.4451
接种	-11.4451
0.69%	-11.4452
区域内	-11.4454
通过对	-11.4454
2019-2021	-11.4455
杆	-11.4455
重仓股	-11.4456
ml	-11.4459
发行量	-11.446
阅读正文之后的免责条款和声明	-11.4462
等多种	-11.4463
其中包括	-11.4463
中国石化	-11.4463
闲置募集资金	-11.4464
▁30.00	-11.4466
涨幅在	-11.4466
负面影响	-11.4466
▁银	-11.4467
冲高回落	-11.4469
非法	-11.4469
有待	-11.4472
不错	-11.4473
附加	-11.4473
533	-11.4477
评估机构	-11.4478
伍	-11.4478
股份公司	-11.4479
資	-11.4479
估值修复	-11.448
▁here	-11.4482
扎实	-11.4482
对方	-11.4483
陆股通	-11.4484
水晶球	-11.4485
清洗	-11.4485
想要	-11.4487
自治区	-11.4488
注册会计师	-11.4489
罚	-11.4491
奶粉	-11.4491
西南证券	-11.4491
0.77%	-11.4492
七条	-11.4492
中国石油	-11.4493
流失	-11.4494
552	-11.4495
997	-11.4496
日晚	-11.4496
▁程	-11.4498
社会消费品零售总额	-11.4498
工业生产	-11.4499
706	-11.45
▁本土智慧	-11.4501
自建	-11.4503
▁1.14	-11.4503
▁+1	-11.4503
分立	-11.4504
20,000.00	-11.4504
当前的	-11.4504
投資者	-11.4505
本公告	-11.4505
备考	-11.4507
▁b	-11.4508
刷新	-11.4508
电动化	-11.4508
線	-11.4509
星期一	-11.4509
财务费用率	-11.4512
演	-11.4512
下探	-11.4513
空间有限	-11.4514
写字楼	-11.4516
▁云南	-11.4516
远超	-11.4516
pdf	-11.4516
年报点评	-11.4518
跑输	-11.4519
100.00%	-11.452
证券分析师	-11.452
▁45%	-11.4523
879	-11.4524
产业升级	-11.4524
科技股	-11.4525
967	-11.4526
的综合	-11.4529
我们看好	-11.453
冷轧	-11.4531
shi	-11.4532
▁西	-11.4535
毛利润	-11.4535
FR	-11.4536
房地产开发有限公司	-11.4536
▁从业资格号	-11.4537
银监会	-11.4537
届满	-11.4537
▁10.6	-11.4538
:%	-11.454
009	-11.4541
资源的	-11.4541
分别同比	-11.4541
747	-11.4542
生化	-11.4542
倾斜	-11.4544
532	-11.4544
建筑工程	-11.4545
氨	-11.4547
835	-11.4547
械	-11.4547
组成部分	-11.4548
将按照	-11.4548
股权转让协议	-11.455
前一周	-11.4553
鸟	-11.4553
不在	-11.4553
量价	-11.4554
的份额	-11.4554
光大证券	-11.4554
地域	-11.4558
芬	-11.4558
增速为	-11.4559
tion	-11.4559
简历	-11.4559
現	-11.4562
ens	-11.4563
内蒙	-11.4564
▁未分配利润	-11.4564
胺	-11.4565
经济体	-11.4565
▁32%	-11.4566
一年内	-11.4571
镁	-11.4571
见底	-11.4572
6001	-11.4575
各位	-11.4575
业内人士	-11.4576
的应收账款	-11.4576
偿债	-11.4577
拜登	-11.4577
股份数量	-11.4578
1609	-11.4578
国有资产	-11.4582
大中城市	-11.4582
日均成交额	-11.4583
20-	-11.4583
窗	-11.4583
60,000	-11.4583
运营效率	-11.4584
▁单季度	-11.4585
在手订单	-11.4585
▁1.18	-11.4586
0.64%	-11.4587
国泰	-11.4587
民族	-11.4587
896	-11.4588
▁亿千瓦时	-11.4588
949	-11.4588
CF	-11.4588
0.62%	-11.459
购买资产	-11.459
914	-11.459
期间内	-11.4591
首款	-11.4591
5%~15%	-11.4592
明显提升	-11.4592
干预	-11.4593
台积电	-11.4594
随之	-11.4595
不确定	-11.4596
▁箱	-11.4597
脸	-11.4597
▁每股	-11.4598
或争取提供投资银行业务服务	-11.4598
会计政策变更	-11.4599
647	-11.4599
281	-11.4601
8,000.00	-11.4602
0.78%	-11.4603
住所	-11.4604
息差	-11.4605
1509	-11.4606
785	-11.4607
----------------	-11.4607
▁UBS	-11.4607
977	-11.4609
本文基于大	-11.461
柴	-11.461
进一步加强	-11.4611
989	-11.4611
▁%%	-11.4612
主要来自	-11.4612
更强	-11.4612
783	-11.4613
现金流量表	-11.4615
三类	-11.4615
审批程序	-11.4616
随着公司	-11.462
家装	-11.4621
有关法律	-11.4621
电子设备	-11.4622
精度	-11.4626
▁10.4	-11.4626
等多	-11.4627
候选人	-11.4627
质疑	-11.4628
百万美元	-11.4629
881	-11.463
35.	-11.463
▁综上所述	-11.4632
▁SFC	-11.4634
封闭	-11.4636
▁2015.	-11.4637
报告中提到的公司所发行	-11.4639
DM	-11.4639
▁应付债券	-11.464
漏	-11.464
万千瓦	-11.464
贤	-11.4641
中期票据	-11.4641
次会议	-11.4641
有一定的	-11.4642
数据生产	-11.4642
被提名人	-11.4642
流动性风险	-11.4642
分成	-11.4643
原油期货	-11.4644
企业和	-11.4644
▁1.2%	-11.4645
新华社	-11.4645
袁	-11.4645
任职资格	-11.4645
▁7.2	-11.4646
▁201	-11.4646
642	-11.4646
帅	-11.4646
现场会议	-11.4646
÷	-11.4647
887	-11.4648
复印件	-11.4648
▁xu	-11.4648
控股集团有限公司	-11.4649
72%	-11.4651
帕	-11.4652
小幅回升	-11.4653
0.90%	-11.4655
1,2	-11.4656
遇	-11.4656
光大银行	-11.4656
966	-11.4657
▁1.16	-11.4657
磷	-11.4658
垫	-11.466
评估对象	-11.4661
职工薪酬	-11.4662
▁无评级	-11.4662
ke	-11.4663
▁021-6	-11.4664
践行	-11.4664
▁他	-11.4665
宫	-11.4666
荷兰	-11.4668
拒绝	-11.4669
中小板指	-11.467
器械	-11.4671
前瞻性	-11.4671
▁2022-02	-11.4672
▁收盘	-11.4672
014	-11.4673
明显改善	-11.4673
国内经济	-11.4673
律	-11.4674
0.76%	-11.4674
募集资金总额	-11.4678
自由现金流	-11.4678
▁5.7	-11.4678
0.74%	-11.4679
0.83%	-11.4679
设立的	-11.4679
▁营业收入增长率	-11.4679
领跌	-11.4683
交叉	-11.4683
久期	-11.4683
朋友	-11.4684
第二季度	-11.4685
实际利率	-11.4685
1992	-11.4685
资产负债表日	-11.4687
▁系列	-11.4688
流通股	-11.4688
986	-11.4688
694	-11.4688
蓝海	-11.469
IV	-11.469
933	-11.4691
xi	-11.4692
商业贸易	-11.4693
流动负债	-11.4694
标题	-11.4695
研判	-11.4695
▁相关研究报告	-11.4698
證	-11.47
▁1.30	-11.4701
衍生工具	-11.4702
銀	-11.4702
蔓延	-11.4702
▁6.6	-11.4704
崔	-11.4704
▁2022-06	-11.4704
认为可靠	-11.4704
政府部门	-11.4706
745	-11.4707
▁6,2	-11.4708
▁-1%	-11.4708
工业化	-11.471
▁Group	-11.4712
▁DONGXING	-11.4712
我的	-11.4712
实施完毕	-11.4713
0.81%	-11.4713
负债总额	-11.4715
磷酸铁锂	-11.4716
收益率为	-11.4718
的一种	-11.4718
der	-11.4719
债券持有人	-11.4719
7.00%	-11.4719
▁2021-03	-11.472
三次	-11.4721
分工	-11.4722
融资净买入	-11.4722
新华保险	-11.4723
看涨	-11.4726
压力较大	-11.473
▁行业点评	-11.473
PM	-11.473
▁10.7	-11.4731
1993	-11.4732
五矿	-11.4735
定义如下	-11.4735
乐视网	-11.4736
花园	-11.4736
▁公司报告	-11.4737
下修	-11.4737
政务	-11.4738
▁议	-11.4738
。3、	-11.4739
十六条	-11.474
SK	-11.474
GE	-11.474
控股股份有限公司	-11.4742
推升	-11.4744
束	-11.4744
兴业证券	-11.4744
毕竟	-11.4744
20.0	-11.4745
区间为	-11.4746
眼科	-11.4747
▁本报告版权归	-11.4747
深成指	-11.4751
年底前	-11.4751
xin	-11.4752
▁小时	-11.4754
334	-11.4755
北路	-11.4755
▁尽管	-11.4758
液压	-11.4758
的不同	-11.4758
▁1.1%	-11.476
982	-11.4761
在一定程度上	-11.4763
或者其他	-11.4763
养老金	-11.4764
拟向	-11.4764
背离	-11.4765
挖	-11.4769
▁制	-11.4769
▁11.8	-11.477
刊	-11.477
框架协议	-11.4771
飙升	-11.4771
翻倍	-11.4771
建设的	-11.4772
斗	-11.4772
LP	-11.4773
本质	-11.4773
主体评级	-11.4775
较长	-11.4775
692	-11.4776
微观	-11.4776
中泰	-11.4777
医用	-11.4778
出炉	-11.478
▁全球视野	-11.478
654	-11.478
短视频	-11.4781
▁2003	-11.4782
线性	-11.4782
▁增	-11.4783
▁194	-11.4783
▁家用电器	-11.4784
寿命	-11.4784
编写	-11.4787
一定程度上	-11.4789
龙头地位	-11.479
經	-11.4791
运营管理	-11.4793
/7/1	-11.4793
下行压力	-11.4794
第二十	-11.4797
959	-11.4797
痛点	-11.4797
承受	-11.4798
足额	-11.4798
凝	-11.4798
0102030405060	-11.4801
淮	-11.4802
▁2021-04	-11.4802
▁本报告所载资料的来源	-11.4804
日常经营	-11.4804
或是	-11.4804
▁年业绩	-11.4805
-0	-11.4806
再加上	-11.4807
▁securities	-11.4811
▁2020-01	-11.4812
故障	-11.4812
将根据	-11.4812
产品和服务	-11.4813
的消费	-11.4813
互补	-11.4814
0.72%	-11.4815
比上月	-11.4815
业务拓展	-11.4816
供应端	-11.4818
资产减值准备	-11.4818
738	-11.4818
自主可控	-11.4818
	-11.4819
大国	-11.482
-5%~+5%	-11.4821
恐	-11.4822
的立场	-11.4823
不改	-11.4823
生产工艺	-11.4827
仿制药	-11.4828
优异	-11.4828
折现率	-11.483
未达到	-11.483
证券代码	-11.4831
▁展	-11.4831
原股东	-11.4831
坏账准备	-11.4833
电压	-11.4833
▁12.0	-11.4834
宁波银行	-11.4834
调价	-11.4835
易方达	-11.4835
▁❑	-11.4836
工作会议	-11.4837
不动产	-11.4837
进行交易	-11.4837
同比分别增长	-11.4838
皖	-11.4838
工业品	-11.484
碧	-11.484
发展方向	-11.4841
有所改善	-11.4841
客观和公正	-11.4841
数据点评	-11.4843
▁1.17	-11.4844
或观点而直接或间接收到任何形式的	-11.4844
的投资机会	-11.4845
内部控制制度	-11.4845
受阻	-11.4847
化工产品	-11.4847
间的	-11.4848
普通股股东	-11.4848
原因是	-11.4851
▁31%	-11.4851
还没有	-11.4852
星期四	-11.4853
时长	-11.4853
978	-11.4854
QFII	-11.4854
的依据	-11.4854
▁请务必阅读报告末页的重要声明	-11.4854
▁7.00	-11.4855
著	-11.4855
▁江西	-11.4856
-1.5	-11.4856
▁息	-11.4857
產品	-11.4857
房地产投资	-11.4858
1.11%	-11.4858
经纪业务	-11.4859
审阅	-11.486
撤	-11.486
玻	-11.4861
转正	-11.4862
ni	-11.4862
劢	-11.4864
指定的	-11.4864
时段	-11.4864
2009-	-11.4864
乔	-11.4867
的差额	-11.4868
金控	-11.4868
百分比	-11.4868
▁833	-11.4868
南非	-11.487
店铺	-11.4871
▁预计未来	-11.4873
073	-11.4874
信任	-11.4875
的消息	-11.4875
过渡	-11.4878
批文	-11.4878
中国太保	-11.4878
996	-11.4878
高精度	-11.4879
▁第一节	-11.4881
来讲	-11.4883
0.82%	-11.4884
98%	-11.4884
淨	-11.4884
MACD	-11.4885
343	-11.4886
该基金	-11.4886
▁33%	-11.4886
牙	-11.4887
大概	-11.4888
举报	-11.4889
的管理	-11.4891
柳州	-11.4892
我市	-11.4892
SG	-11.4893
暴露	-11.4894
▁2.5%	-11.4894
浮动	-11.4894
万元至	-11.4896
▁CO	-11.4897
▁832	-11.4898
控制器	-11.4899
验资报告	-11.4901
▁其他应付款	-11.4902
铝价	-11.4902
个基点	-11.4904
勤勉尽责	-11.4904
的分析	-11.4904
若有必要	-11.4905
▁280	-11.4905
意图	-11.4907
▁12.5	-11.4907
另有	-11.4909
商誉减值	-11.4909
▁6.7	-11.491
▁2022-05	-11.491
产能释放	-11.491
em	-11.4911
舟	-11.4911
▁新加坡	-11.4912
ance	-11.4912
监察	-11.4914
1809	-11.4914
2018-01	-11.4915
具体如下	-11.4917
749	-11.4918
与中国	-11.4918
营造	-11.4919
细分市场	-11.4919
创业板指数	-11.492
混合型基金	-11.4921
起诉	-11.4921
REIT	-11.4921
短融	-11.4921
关于调整	-11.4922
▁Re	-11.4922
本息	-11.4922
最多的	-11.4924
新设	-11.4926
CBOT	-11.4927
▁India	-11.4928
大唐	-11.4929
1.20%	-11.4929
▁上海市	-11.4929
系统性风险	-11.4932
▁-4%	-11.4934
0.98%	-11.4936
恒瑞医药	-11.4936
战争	-11.4936
冬季	-11.4936
693	-11.4938
顺丰	-11.4939
纳税	-11.4939
力求	-11.4939
市场竞争力	-11.4941
▁根据公司	-11.4942
平均价格	-11.4943
接到	-11.4943
mail	-11.4943
新基建	-11.4943
定点	-11.4944
652	-11.4944
址	-11.4945
募集资金专户	-11.4946
里面	-11.4948
中关村	-11.4949
892	-11.495
基金份额持有人	-11.4951
▁年内	-11.4952
害	-11.4952
自产	-11.4952
▁公司在	-11.4952
法规及	-11.4953
▁10.9	-11.4956
暗	-11.4956
802	-11.4957
▁5.9	-11.4961
534	-11.4961
投资金额	-11.4962
752	-11.4962
集团有限责任公司	-11.4962
英伟达	-11.4962
该部分	-11.4963
976	-11.4964
销售净利率	-11.4968
上调至	-11.4968
▁15:	-11.4971
介于	-11.4971
型企业	-11.4973
DA	-11.4973
跌幅为	-11.4973
中石油	-11.4975
-80	-11.4975
重要提示	-11.4975
准备金	-11.4977
‚	-11.4979
证券研究所	-11.4979
虫	-11.4979
单体	-11.498
0.73%	-11.4981
履行了	-11.4981
.00	-11.4982
硫酸	-11.4983
▁Apr	-11.4983
。(3)	-11.4984
▁8.0	-11.4984
jing	-11.4984
646	-11.4985
住房公积金	-11.4985
侯	-11.4985
残	-11.4986
228	-11.4987
653	-11.4988
作物	-11.4988
募	-11.4989
▁谨慎推荐	-11.499
▁1,00	-11.4992
通信设备	-11.4993
桩	-11.4995
继续停牌	-11.4995
短板	-11.4995
出资额	-11.4996
Shibor	-11.4996
册	-11.4998
扭转	-11.4998
目前已经	-11.4998
938	-11.5
承载	-11.5001
進	-11.5001
品位	-11.5002
的优质	-11.5005
▁招商	-11.5007
刚性	-11.5007
科大讯飞	-11.5009
区别	-11.501
猪肉价格	-11.5012
▁7,9	-11.5013
三亚	-11.5015
业务毛利率	-11.5017
▁May	-11.5018
(0027	-11.5019
市人民政府	-11.5019
传动	-11.5021
成都市	-11.5023
的模式	-11.5024
可能对	-11.5025
姜	-11.5025
价格在	-11.5027
▁con	-11.5028
599	-11.5029
懂	-11.503
也可能为这些公司提供或者争取提供	-11.5031
772	-11.5033
万联证券研究所	-11.5033
▁1,12	-11.5034
更具	-11.5037
0.87%	-11.5038
终于	-11.5039
房源	-11.5039
CE	-11.5039
著名	-11.504
需求增长	-11.504
▁办公地址	-11.504
mi	-11.504
的决定	-11.5041
两个月	-11.5042
▁-0.1	-11.5044
上一交易日	-11.5045
混合型证券投资基金	-11.5046
634	-11.5046
同时公司	-11.5047
▁建筑装饰	-11.5048
0.79%	-11.5049
▁单	-11.505
.12.31	-11.5051
涤纶长丝	-11.5054
外需	-11.5055
792	-11.5058
淀粉	-11.5058
扬州	-11.5059
1/4	-11.5061
保温	-11.5062
500,000	-11.5062
的支撑	-11.5062
▁(852)	-11.5063
0.85%	-11.5064
纱	-11.5065
涉嫌	-11.5067
泡	-11.5067
琪	-11.507
▁指标	-11.5071
▁1.22	-11.5071
計	-11.5071
真的	-11.5072
技术水平	-11.5072
泓	-11.5073
华宝	-11.5074
键	-11.5074
今年的	-11.5074
news	-11.5075
邵	-11.5075
425	-11.5077
▁期末数	-11.5077
451	-11.5078
466	-11.5079
赫	-11.5079
旅行	-11.5079
▁11.6	-11.508
婚	-11.5081
桥梁	-11.5082
jun	-11.5084
地图	-11.5086
相对较低	-11.5088
功能性	-11.5088
▁10.3	-11.5089
长城证券研究所	-11.5089
对上述	-11.509
总公司	-11.509
愿	-11.5092
每股净资产	-11.5093
截止到	-11.5093
相关文件	-11.5094
股份有限公司章程	-11.5095
25.0	-11.5096
PL	-11.5097
离子	-11.5097
643	-11.51
FINRA	-11.5101
证券股份有限公司	-11.5103
建立健全	-11.5103
出资比例	-11.5104
客户端	-11.5104
定量	-11.5104
或者其他原因	-11.5111
投资者应注意	-11.5112
瓜	-11.5113
灭	-11.5114
2016-0	-11.5114
竞争加剧	-11.5115
证报告所采用的数据均来自合规渠道	-11.5117
觉得	-11.5118
集群	-11.5118
给出	-11.5119
中资	-11.5121
▁1,19	-11.5122
▁指数涨幅	-11.5123
便宜	-11.5124
苑	-11.5125
重点项目	-11.5125
▁11.3	-11.5125
▁900	-11.5126
▁一致预期	-11.5126
創	-11.5127
普惠	-11.5127
优惠政策	-11.5127
▁该股最近	-11.5127
ity	-11.513
天津港	-11.5131
公司根据	-11.5132
ME	-11.5133
货币市场基金	-11.5134
低估	-11.5135
自律	-11.5135
▁5.0%	-11.5135
迅猛	-11.5136
796	-11.5136
52%	-11.5138
▁南方	-11.5138
新经济	-11.5138
闭环	-11.5138
董事会审议通过	-11.5138
越来越多的	-11.5139
冲高	-11.5139
TI	-11.514
市场行情	-11.5142
徐州	-11.5142
标签	-11.5143
搜	-11.5143
医疗健康	-11.5144
251	-11.5144
积极参与	-11.5145
净化	-11.5146
回答	-11.5147
溢	-11.5148
完美	-11.5148
并自行承担投资风险	-11.5148
本次收购	-11.5149
有望达到	-11.515
继续关注	-11.5151
太原	-11.5151
▁1.40	-11.5152
hao	-11.5153
蒲式耳	-11.5153
▁信息披露	-11.5153
▁欧洲	-11.5154
计划在	-11.5154
▁360	-11.5155
中医药	-11.5155
公共服务	-11.5156
0.86%	-11.5158
布伦特原油	-11.5159
提供劳务	-11.5161
050001000015000	-11.5161
行業	-11.5161
对公	-11.5162
总额为	-11.5162
成份股	-11.5162
各省	-11.5164
高端化	-11.5164
这两	-11.5164
首日	-11.5166
跨界	-11.5166
铝合金	-11.5166
0516	-11.5167
绝对值	-11.5169
上市银行	-11.5169
ie	-11.517
mo	-11.517
▁是否	-11.5171
颁发的	-11.5171
▁价差	-11.5172
▁种	-11.5172
该产品	-11.5174
汇报	-11.5176
出栏	-11.5177
EP	-11.5178
萬	-11.5178
封闭式	-11.5179
▁205	-11.5179
制造业投资	-11.518
为企业	-11.5181
同比增长率	-11.5183
基准利率	-11.5183
602	-11.5183
RI	-11.5185
EN	-11.5185
847	-11.5186
华中	-11.5188
重要事项	-11.5189
▁2021-05	-11.5191
日经	-11.5193
情况及	-11.5193
1709	-11.5193
进口替代	-11.5193
考虑到公司	-11.5194
有表决权股份总数的	-11.5194
挤压	-11.5195
期货结算价	-11.5195
浓	-11.5196
902	-11.5196
TO	-11.5197
主要财务指标	-11.5197
PO	-11.5197
▁股票名称	-11.5199
▁理计	-11.5199
贵阳	-11.52
风口	-11.52
比去年同期	-11.52
发表了	-11.5202
▁207	-11.5203
过高	-11.5204
无人驾驶	-11.5205
货币市场	-11.5205
▁日前	-11.5205
MR	-11.5206
现有的	-11.5208
戒	-11.5208
惊	-11.5208
之后的	-11.5212
0.84%	-11.5213
净亏损	-11.5214
伏	-11.5214
繁荣	-11.5215
▁7,6	-11.5217
公司收到	-11.5218
动量	-11.5219
26:	-11.5219
邹	-11.5219
前十名	-11.522
分别同比增长	-11.522
双重	-11.5221
对外开放	-11.5221
并向	-11.5223
立项	-11.5224
ill	-11.5226
金龙	-11.5226
▁营	-11.5227
同比分别	-11.5228
诞生	-11.5229
我司	-11.523
的速度	-11.5234
见证	-11.5235
被评估单位	-11.5235
341	-11.5236
粤港澳大湾区	-11.5237
最大化	-11.5239
/12/20	-11.524
彩票	-11.524
小盘	-11.5241
644	-11.5242
底层	-11.5244
多年来	-11.5244
海外业务	-11.5245
砂	-11.5246
▁成立日期	-11.5247
▁与资产相关	-11.5247
产业集群	-11.5248
全程	-11.5249
万份	-11.5249
诊	-11.5251
偏空	-11.5252
▁1,16	-11.5253
▁法律声明	-11.5254
休	-11.5254
RU	-11.5254
344	-11.5255
缴款	-11.5256
世茂	-11.5256
粗	-11.5259
本所律师认为	-11.526
撤销	-11.5261
万个	-11.5261
EBIT	-11.5264
幅度较大	-11.5265
736	-11.5267
危	-11.5268
筹	-11.5268
GPU	-11.5268
12000	-11.5269
会计处理	-11.5273
单车	-11.5273
18.5	-11.5274
就在	-11.5278
而不是	-11.5278
本报告所载的信息	-11.5279
风险溢价	-11.528
▁11.7	-11.5281
进取	-11.5283
▁-30%	-11.5283
相对较高	-11.5284
节省	-11.5285
info	-11.5286
利多	-11.5288
748	-11.5289
/10/20	-11.5289
▁1,14	-11.529
协同发展	-11.529
733	-11.5293
投资者应	-11.5293
-2025	-11.5294
考虑到个别客户特殊的投资目标	-11.5296
会议上	-11.5297
▁十	-11.5299
信创	-11.5299
管制	-11.53
10.5	-11.53
內容	-11.5301
呼	-11.5301
236	-11.5302
抗体	-11.5302
▁206	-11.5302
领跑	-11.5302
▁7.1	-11.5303
分析报告	-11.5305
综合收益总额	-11.5305
1.30%	-11.5308
即便	-11.5309
▁1,15	-11.5309
服务中心	-11.531
精细化	-11.531
873	-11.531
0.91%	-11.5311
弃	-11.5312
的选择	-11.5312
807	-11.5313
并以	-11.5313
生物制品	-11.5313
授信额度	-11.5314
▁7,7	-11.5315
▁西部证券	-11.5316
▁华泰	-11.5319
天胶	-11.5319
还需要	-11.532
ter	-11.532
/6/1	-11.5321
son	-11.5321
69%	-11.5322
舰	-11.5323
over	-11.5324
-60	-11.5324
秩序	-11.5324
发表意见	-11.5328
会对	-11.5329
▁本集团	-11.5332
1,3	-11.5334
室内	-11.5335
▁本研究报告	-11.5336
249	-11.5337
在这个	-11.5339
▁203	-11.5341
▁2018.	-11.5341
交易金额	-11.5342
▁1.35	-11.5344
共赢	-11.5345
债务人	-11.5345
陕西省	-11.5346
物质	-11.5347
最好的	-11.5347
不好	-11.5348
净利润率	-11.5349
占比分别为	-11.5349
基调	-11.5351
四年	-11.5354
洞	-11.5354
较快增长	-11.5355
▁投资损失	-11.5358
▁15.00	-11.5358
党委	-11.5358
681	-11.5358
First	-11.5358
0.88%	-11.536
分析员	-11.5361
▁同花顺	-11.5365
▁一般	-11.5366
置业有限公司	-11.5366
▁小计	-11.5366
密封	-11.5368
溶	-11.5369
红色	-11.537
评选	-11.537
ding	-11.5371
清华大学	-11.5371
票数	-11.5371
两国	-11.5371
本公司及其所属关联机构可能会持有	-11.5371
732	-11.5373
906	-11.5374
星期三	-11.5374
▁净利润率	-11.5374
551	-11.5376
▁2.1.	-11.5376
542	-11.5376
上汽	-11.5377
合作的	-11.5377
与本公司和作者无关	-11.5377
较前一交易日	-11.5377
暴涨	-11.5378
至于	-11.5378
积分	-11.5378
0.89%	-11.5378
702	-11.5379
993	-11.5379
的逻辑	-11.538
本报告中	-11.538
值得注意的是	-11.5382
年第三次临时股东大会	-11.5382
由董事会	-11.5383
▁件	-11.5383
织	-11.5384
股份转让	-11.5384
星期二	-11.5385
▁8.5	-11.5385
最初	-11.5386
2,4	-11.5387
▁恒指	-11.5387
▁1,11	-11.5389
截至本	-11.5389
hai	-11.539
粉丝	-11.539
短期融资券	-11.539
有效表决权股份总数的	-11.539
IR	-11.5391
固定利率	-11.5392
神州	-11.5392
ant	-11.5393
价格波动	-11.5393
登录	-11.5394
部长	-11.5395
▁399	-11.5396
伊利	-11.5397
0.95%	-11.5397
最好	-11.5397
华闻期货	-11.5399
经相关部门批准后方可开展经营活动	-11.5399
▁7,5	-11.54
驾	-11.5402
764	-11.5403
终值	-11.5403
监管局	-11.5403
有人	-11.5407
****	-11.5407
78%	-11.5407
437	-11.5407
長	-11.5408
可能出现	-11.5408
的产能	-11.541
镍铁	-11.5411
家上市公司	-11.5412
相对收益	-11.5413
基本金属	-11.5415
▁东方	-11.5416
主打	-11.5416
▁减值准备	-11.5418
曝光	-11.542
de	-11.542
誉	-11.542
欠	-11.5423
893	-11.5424
机械行业	-11.5425
年全球	-11.5427
40%,	-11.5432
扭亏为盈	-11.5432
教师	-11.5433
聚丙烯	-11.5434
當	-11.5434
五一	-11.5435
亭	-11.5438
▁报告期	-11.5438
路桥	-11.5439
相对强于市场表现	-11.5439
5-8	-11.544
行业协会	-11.5442
申请文件	-11.5442
量能	-11.5444
▁此次	-11.5444
表现出	-11.5445
出于	-11.5445
归属于母公司股东的净利润	-11.5446
中诚信国际	-11.5448
拿到	-11.5448
▁1.19	-11.545
废钢	-11.545
元器件	-11.545
孚	-11.5451
24.0	-11.5452
超过了	-11.5453
针对协议转让标的	-11.5455
真空	-11.5455
市场竞争加剧	-11.5456
公司实现营收	-11.546
请问	-11.546
协商确定	-11.5462
霍	-11.5464
国民	-11.5464
依然是	-11.5465
远东	-11.5467
▁1.28	-11.5468
通报	-11.5468
分别增长	-11.5469
861	-11.5469
網	-11.5474
千元	-11.5475
系统性	-11.5476
▁7,8	-11.5476
配臵	-11.5477
1.05%	-11.5478
舒适	-11.5478
磋商	-11.5478
及同比增速	-11.5479
进行减值测试	-11.5481
BDI	-11.5482
本公司将	-11.5483
栏	-11.5484
参见	-11.5485
有望加速	-11.5486
NN	-11.5487
规范性文件	-11.5488
及以下	-11.5489
MainInfo	-11.549
齐全	-11.549
大宗商品价格	-11.5491
购买日	-11.5493
581	-11.5494
外围	-11.5495
▁全年	-11.5497
回流	-11.5497
主义	-11.55
并应同时考量各自的投资目	-11.5501
明确的	-11.5503
PT	-11.5503
评估结果	-11.5504
▁风险因素	-11.5505
调整后的	-11.5507
电能	-11.5508
供应量	-11.5508
-01-02	-11.5509
宏观政策	-11.551
反映出	-11.551
774	-11.5511
乌克兰	-11.5512
煤炭行业	-11.5512
对被投资单位	-11.5512
的最新	-11.5514
上市规则	-11.5515
广泛应用于	-11.5517
贾	-11.5517
高端产品	-11.5518
▁192	-11.5518
773	-11.5519
可用	-11.5519
区域性	-11.5519
偿付	-11.552
战略性	-11.5521
细化	-11.5522
万方	-11.5522
异动	-11.5522
回购价格	-11.5523
▁LLC	-11.5524
1.40%	-11.5525
递交	-11.5526
▁2.50	-11.5526
用量	-11.5527
▁1,02	-11.5529
sp	-11.5531
产业债	-11.5532
▁票	-11.5532
合法合规	-11.5533
click	-11.5534
的利润	-11.5534
平安证券	-11.5536
全国性	-11.5536
国庆	-11.5536
学科	-11.5536
纸浆	-11.5538
▁1,18	-11.5538
康复	-11.5538
无限	-11.5539
▁other	-11.5539
▁纺织服装	-11.5539
上市公司重大资产重组管理办法	-11.5539
816	-11.5539
0.93%	-11.5541
以下统称	-11.5541
兑	-11.5543
事实上	-11.5543
最近一年	-11.5543
IoT	-11.5544
表现亮眼	-11.5544
-09-30	-11.5545
染料	-11.5545
▁13.5	-11.5546
發展	-11.5547
0.94%	-11.5548
市场走势	-11.5549
▁7,3	-11.5549
6.67%	-11.5551
聚氨酯	-11.5553
隐	-11.5553
HTISG	-11.5554
过渡期	-11.5554
行长	-11.5554
沉	-11.5555
熟悉	-11.5556
jie	-11.5559
▁may	-11.556
货车	-11.556
童	-11.5561
资产管理计划	-11.5561
原告	-11.5562
除非另有书面	-11.5562
▁3.0%	-11.5563
▁东兴证券	-11.5566
本报告中所	-11.5567
年代	-11.5567
消费金融	-11.5567
794	-11.5568
出现明显	-11.5568
▁204	-11.557
全新的	-11.5571
543	-11.5571
▁1.3%	-11.5571
奔	-11.5572
0.99%	-11.5572
Ch	-11.5573
场外	-11.5573
β	-11.5575
连云港	-11.5575
财通证券研究所	-11.5576
广汽	-11.5578
也要	-11.5578
立体	-11.5578
的资料	-11.5578
▁预付款项	-11.5579
0.92%	-11.5579
滩	-11.5579
股票期权激励计划	-11.558
每吨	-11.5583
沪锌	-11.5585
杭州市	-11.5585
增持评级	-11.5586
iv	-11.5586
0.96%	-11.5587
尊	-11.5587
高效的	-11.5588
1805	-11.559
退休	-11.5591
他们的	-11.5591
▁1,17	-11.5592
冠军	-11.5592
0630	-11.5593
▁301	-11.5597
虚假	-11.5598
实施细则	-11.5599
家用	-11.56
账龄	-11.56
957	-11.56
经审计	-11.56
多款	-11.5604
▁1,13	-11.5604
MEG	-11.5605
▁1,21	-11.5605
ag	-11.5606
1.10%	-11.5606
LF	-11.5606
AP	-11.5607
sc	-11.5608
(2016	-11.5608
▁►	-11.5609
担当	-11.5611
建行	-11.5611
956	-11.5613
▁年前	-11.5614
09-	-11.5616
上市以来	-11.5622
▁20.0	-11.5623
▁1.24	-11.5624
▁7.4	-11.5625
前十大	-11.5627
替尼	-11.5628
一汽	-11.5629
的位置	-11.5631
确认收入	-11.5632
资产减值	-11.5633
▁月下旬	-11.5633
陕	-11.5634
449	-11.5635
是全球	-11.5637
中国制造	-11.5637
▁个月内的公司股价	-11.5637
山区	-11.5638
ell	-11.5638
处于历史	-11.5643
本公司对这些信息的	-11.5644
DE	-11.5644
履行信息披露义务	-11.5645
军民融合	-11.5645
▁一周	-11.5645
另行	-11.5647
Top	-11.5648
毕业于	-11.5648
權	-11.5652
树立	-11.5652
鹿	-11.5656
▁·	-11.5657
涤纶	-11.5659
▁请务必阅读正文后的重要声明部分	-11.5659
技术面	-11.5661
73%	-11.5662
持续督导	-11.5662
不如	-11.5663
目前来看	-11.5664
始	-11.5664
▁11.9	-11.5664
还能	-11.5665
有关事项	-11.5665
是否符合	-11.5667
0100020003000	-11.5668
事先	-11.567
滤	-11.5671
▁电力设备	-11.5673
庞大	-11.5674
同比去年	-11.5674
等工作	-11.5675
收款	-11.5675
▁1,03	-11.5675
483	-11.5675
▁209	-11.5676
846	-11.5677
▁1.27	-11.5678
多年的	-11.5678
已取得	-11.5678
0.97%	-11.5679
仪表	-11.5679
▁广西	-11.5681
▁姓	-11.5686
該	-11.5686
(2017	-11.5687
1.43%	-11.5687
授	-11.5688
使其	-11.5688
对话	-11.5689
铝业	-11.5691
589	-11.5692
健身	-11.5692
公司名称	-11.5693
221	-11.5693
12.5	-11.5693
工会	-11.5694
不良率	-11.5695
销售毛利率	-11.5696
/9/1	-11.5697
总量的	-11.5697
镜头	-11.5699
可随时更改	-11.5699
组装	-11.5699
751	-11.5699
销售人员	-11.5699
借鉴	-11.57
贸易战	-11.57
幸福	-11.5702
中间体	-11.5702
创新能力	-11.5703
融资需求	-11.5703
摆	-11.5703
顺应	-11.5703
泥	-11.5705
就有	-11.5705
▁IPO	-11.5706
帮扶	-11.5709
▁未评级	-11.571
公司控股子公司	-11.571
▁1.26	-11.5713
行业动态	-11.5713
SO	-11.5713
纺织品	-11.5714
到达	-11.5714
▁康	-11.5715
深度融合	-11.5718
方正	-11.5718
年化收益率	-11.5718
参阅最后一页的信息披露和法律声明	-11.572
疫	-11.5721
座谈会	-11.5723
资金占用	-11.5723
ying	-11.5723
▁1.23	-11.5726
市场开拓	-11.5729
净利润分别为	-11.5732
▁综合来看	-11.5733
实物	-11.5735
%10%20%30%40%50%	-11.5736
激进	-11.5737
消息面	-11.5738
的阶段	-11.5738
出厂	-11.5738
feng	-11.5739
在当前	-11.5743
▁Sep	-11.5743
采访	-11.5746
监管要求	-11.5746
抵消	-11.5748
分析师给出	-11.5751
▁1.21	-11.5753
酮	-11.5754
减税	-11.5755
实收资本	-11.5755
1.02%	-11.5757
▁恒生指数	-11.5758
意见及推测只提供给客户作参考之用	-11.5759
公允价值变动收益	-11.5759
的潜在	-11.5759
体现在	-11.576
院线	-11.5762
的法律	-11.5762
76%	-11.5763
也能	-11.5764
▁西安	-11.5764
展期	-11.5764
财政支出	-11.5764
本次权益变动	-11.5764
中路	-11.5765
▁宏观研究	-11.5766
小计	-11.5768
净息差	-11.5768
1.03%	-11.5769
▁7,4	-11.577
▁户	-11.577
我们也	-11.577
746	-11.577
▁market	-11.577
704	-11.5772
矿产	-11.5773
▁2020-07	-11.5775
公开市场操作	-11.5775
ul	-11.5776
烧	-11.5776
成立了	-11.5777
020406080100120	-11.5777
突然	-11.5777
行业配置	-11.5778
的现象	-11.5781
永安	-11.5781
FF	-11.5782
資產	-11.5783
远洋	-11.5783
转弱	-11.5784
衔接	-11.5786
▁公里	-11.5788
原油库存	-11.5789
▁2021-08	-11.5789
富国	-11.5789
的实际情况	-11.579
的监管	-11.579
豫	-11.5791
月起	-11.5793
東	-11.5794
▁留存收益	-11.5796
74%	-11.5799
▁1,01	-11.58
1.08%	-11.58
一号	-11.5801
853	-11.5802
国家电网	-11.5803
等一系列	-11.5804
734	-11.5804
后来	-11.5806
外购	-11.5807
▁年营收	-11.5807
汇金	-11.5807
趋缓	-11.5807
▁1,26	-11.5808
先发优势	-11.5809
融资净偿还	-11.581
并不构成	-11.581
抓好	-11.5811
投票表决	-11.5812
原则上	-11.5812
▁De	-11.5813
2026	-11.5813
每股盈利	-11.5815
在香港	-11.5815
神经	-11.5818
25.00	-11.5819
拟收购	-11.582
过于	-11.5822
90.00	-11.5823
1988	-11.5824
行动计划	-11.5824
之用	-11.5824
集团旗下	-11.5826
主办	-11.5828
GC	-11.583
智利	-11.5831
▁负债和股东权益	-11.5831
鄂	-11.5833
习	-11.5833
▁208	-11.5835
604	-11.5836
1505	-11.5836
ING	-11.5836
股价为	-11.5838
▁当前价格	-11.5838
47.	-11.5838
▁11.0	-11.5838
按规定	-11.584
紫光	-11.5842
防御	-11.5843
交通银行	-11.5844
▁-0.02	-11.5845
筹资	-11.5846
扭亏	-11.5847
制冷	-11.5848
资本金	-11.5848
以现金方式	-11.5849
重量	-11.5849
好于预期	-11.5849
过后	-11.585
杉	-11.585
CAC	-11.585
保持了	-11.5852
装备制造	-11.5852
太大	-11.5853
资产支持证券	-11.5854
底线	-11.5854
递	-11.5855
也就是	-11.5857
昨	-11.5857
处于低位	-11.5858
的规模	-11.586
西路	-11.586
占优	-11.586
浮法玻璃	-11.5862
终止确认	-11.5862
▁上次评级	-11.5863
▁1.4%	-11.5864
-10-31	-11.5864
趋势性	-11.5864
▁1,20	-11.5864
贷款余额	-11.5867
以其	-11.5868
053	-11.5869
进一步优化	-11.5869
价格下降	-11.5871
收入确认	-11.5871
从业	-11.5873
齐鲁	-11.5873
股转增	-11.5873
预增	-11.5876
1.75%	-11.5878
▁....	-11.588
▁年收入	-11.5882
劣	-11.5884
4,500	-11.5884
判	-11.5884
▁速	-11.5887
业绩超预期	-11.5888
面临着	-11.5888
发文	-11.589
邱	-11.5891
中信建投证券	-11.5892
螺	-11.5894
存在的	-11.5895
业务量	-11.5895
▁股指期货	-11.5896
美债收益率	-11.5896
合伙	-11.5898
头部企业	-11.5899
东南	-11.59
▁销售助理	-11.59
统计数据	-11.5901
站在	-11.5901
CPU	-11.5902
弱化	-11.5902
CRO	-11.5903
经营效率	-11.5904
非农就业	-11.5905
减值测试	-11.5905
较为稳定	-11.5905
计算的	-11.5905
▁年净利润	-11.5906
美好	-11.5907
在此声明	-11.5908
话题	-11.5909
來	-11.5909
银行的	-11.5909
主要以	-11.5909
▁13.0	-11.5909
华泰期货有限公司	-11.591
的差异	-11.591
跨期价差	-11.5912
公司收入	-11.5912
应付利息	-11.5912
投资者据此做出的任何投资决策	-11.5914
........	-11.5915
中芯国际	-11.5915
不予	-11.5915
不需要	-11.5916
编码	-11.5917
▁34%	-11.5917
盘活	-11.5919
监事会主席	-11.5919
本次交易前	-11.5919
439	-11.5919
▁1,10	-11.592
将达	-11.592
661	-11.5922
察	-11.5924
企稳回升	-11.5924
028	-11.5924
真实性	-11.5925
氨纶	-11.5925
臵	-11.5925
短期债务	-11.5928
19.5	-11.5931
953	-11.5936
月中旬	-11.5937
相关事宜	-11.5938
▁具体	-11.5938
百川盈孚	-11.594
▁1,06	-11.594
开门红	-11.594
勘探	-11.594
三四线城市	-11.5941
跨国	-11.5941
购买理财产品	-11.5941
的真实	-11.5942
涨跌互现	-11.5942
594	-11.5944
仍以	-11.5945
汽車	-11.5946
448	-11.5946
影响因素	-11.5946
经济形势	-11.5946
静待	-11.5946
国金	-11.5946
短暂	-11.5947
▁2021-06	-11.5949
可发出其它与本报告	-11.595
资本支出	-11.5951
仅仅	-11.5951
价格区间	-11.5953
创业投资	-11.5954
已获得	-11.5954
债券发行	-11.5954
融通	-11.5954
季报点评	-11.5955
987	-11.5956
舱	-11.5957
▁18:	-11.5958
▁1.32	-11.5959
迷	-11.5962
之际	-11.5963
变成	-11.5963
预计到	-11.5963
高炉	-11.5964
原理	-11.5964
▁7,2	-11.5966
闭	-11.5966
相關	-11.5968
管理费	-11.5968
▁设	-11.5969
na	-11.597
安信	-11.597
己	-11.5972
喜欢	-11.5972
▁FUTURES	-11.5973
合规性	-11.5975
协议约定	-11.5975
顾客	-11.5976
864	-11.5976
25%,	-11.5977
1.06%	-11.5978
销售商品	-11.5978
▁14.0	-11.5979
認購	-11.598
东方证券	-11.5982
期初余额	-11.5985
召开股东大会	-11.5986
铸	-11.5986
▁171	-11.5986
四是	-11.5987
9%。	-11.5988
支架	-11.5988
▁市场数据	-11.5989
导致公司	-11.5991
固废	-11.5992
勢	-11.5993
走出去	-11.5993
ay	-11.5994
1.04%	-11.5994
▁1.6%	-11.5995
归母净利润为	-11.5995
征集	-11.5995
/11/20	-11.5995
配套融资	-11.5997
不会对	-11.5997
见顶	-11.5997
▁附表	-11.5998
使用情况	-11.5998
75.00	-11.5998
贵州省	-11.5999
(2015	-11.5999
槽	-11.5999
未发现	-11.6
▁Jun	-11.6
建设和	-11.6001
核销	-11.6001
▁建	-11.6002
有一个	-11.6003
‛	-11.6004
发明	-11.6004
本报告中的	-11.6004
听取	-11.6005
奈	-11.6005
7500	-11.6006
▁6.9	-11.6007
债务重组	-11.6009
将面临	-11.601
综合服务	-11.6011
警惕	-11.6011
1.15%	-11.6012
董事会审议	-11.6013
链条	-11.6013
▁1,25	-11.6014
永续债	-11.6015
973	-11.6015
1.67%	-11.6016
71%	-11.6017
ru	-11.6018
▁求	-11.6019
▁1.29	-11.6026
▁7,0	-11.6028
体制改革	-11.6029
油厂	-11.6029
还可以	-11.6029
丰田	-11.6031
期间费用	-11.6032
调试	-11.6032
事务所	-11.6033
Po	-11.6034
其次是	-11.6035
发展历程	-11.6035
保荐代表人	-11.6036
小镇	-11.6039
1.01%	-11.6039
在研	-11.6039
每日经济新闻	-11.6042
1-12	-11.6043
预付	-11.6045
信用等级	-11.6045
▁归属于母公司净利润	-11.6045
证实	-11.6045
年前三季度	-11.6045
投资者应当考虑到	-11.6047
文字	-11.6047
软件开发	-11.6048
配方	-11.6049
784	-11.6049
分钟内涨幅超过	-11.6049
林业	-11.6053
1.16%	-11.6054
▁永续债	-11.6057
隐含	-11.6059
上市交易	-11.6059
1.60%	-11.606
技术咨询	-11.6061
低基数	-11.6061
上汽集团	-11.6062
投资计划	-11.6063
出厂价格	-11.6065
往来	-11.6067
▁盈余公积	-11.6067
达标	-11.6068
裂	-11.607
交易中心	-11.607
▁3.5%	-11.607
可能会持有本报告中提及公司所	-11.6071
快报	-11.6071
标志	-11.6072
▁主要财务指标	-11.6074
▁8.00	-11.6075
提供商	-11.6076
坏	-11.6077
覆	-11.6077
NYMEX	-11.6078
南路	-11.608
▁今年以来	-11.608
沉淀	-11.6081
严格执行	-11.6081
扫	-11.6083
暂未	-11.6083
婷	-11.6084
并完整理解和使用本报告内	-11.6085
风光	-11.6088
表决方式	-11.6088
厂区	-11.6089
本次交易中	-11.609
征信	-11.6091
对经济	-11.6091
高新技术	-11.6091
42.5	-11.6093
储存	-11.6094
▁12.4	-11.6094
疫情期间	-11.6094
偏多	-11.6094
归属母公司	-11.6095
公司数据	-11.6095
CSI	-11.6096
未经本公司书面许可	-11.6098
轉	-11.6099
同比增幅	-11.6099
海螺水泥	-11.6099
742	-11.61
同期相关证券市场代表性指数	-11.61
截至收盘	-11.6101
lan	-11.6103
2101	-11.6105
金银	-11.6105
2027	-11.6107
▁3.2.	-11.6107
银行理财	-11.6107
年下半年	-11.6109
965	-11.6109
新项目	-11.611
的贡献	-11.611
调整前	-11.6111
461	-11.6111
军品	-11.6112
零食	-11.6114
1.18%	-11.6114
截	-11.6115
可行性	-11.6115
436	-11.6116
滴	-11.6117
借贷	-11.6117
口腔	-11.6117
公告日	-11.6118
缝	-11.6118
▁韩国	-11.6119
葡萄酒	-11.612
融合发展	-11.6122
▁1.31	-11.6123
hen	-11.6123
年度利润分配预案	-11.6124
1980	-11.6125
-2024	-11.6126
管理能力	-11.6126
创新驱动	-11.6127
▁明	-11.6127
▁易方达	-11.6128
硅铁	-11.6129
尤	-11.613
资料显示	-11.6132
迟	-11.6133
烟草	-11.6134
671	-11.6135
▁7.3	-11.6136
保费收入	-11.6136
全覆盖	-11.6136
上来看	-11.6137
配电	-11.6137
释义	-11.6137
▁de	-11.6139
SAC	-11.6139
本报告人员的具体投资目	-11.6139
▁rating	-11.614
da	-11.6142
机器设备	-11.6142
产品的研发	-11.6145
长城证券	-11.6146
经济运行	-11.6146
为主要	-11.6146
的快速发展	-11.6146
正式发布	-11.6149
获授	-11.615
基金管理	-11.615
17.6	-11.615
之和	-11.615
下降了	-11.615
学会	-11.6151
福特	-11.6152
等项目	-11.6152
深市	-11.6153
主要指数	-11.6153
▁13.3	-11.6153
谭	-11.6155
本报告所载	-11.6156
边缘	-11.6157
留意	-11.6157
首期	-11.6157
转出	-11.6159
803	-11.6161
公司股票于	-11.6161
▁融资方面	-11.6161
3.50%	-11.6162
大幅回落	-11.6163
▁网址	-11.6165
疑	-11.6166
具体的	-11.6167
▁13.2	-11.6169
1.12%	-11.6171
等于	-11.6171
▁上证综指	-11.6171
电石	-11.6171
产品及	-11.6172
491	-11.6172
占全球	-11.6175
2017-01	-11.6175
▁-6%	-11.6175
持有至到期投资	-11.6175
投标人	-11.6176
▁1599	-11.6177
MC	-11.6178
抛售	-11.6179
前端	-11.6179
16.8	-11.618
交所	-11.618
填写	-11.6181
第一大	-11.6181
或其关联人员均不承担任何法律责任	-11.6182
To	-11.6182
▁181	-11.6183
绕	-11.6184
网址	-11.6185
本着	-11.6186
资金利率	-11.6186
▁1,27	-11.6187
的投入	-11.6187
▁1.33	-11.6187
▁Aug	-11.6187
营商环境	-11.6188
绍兴	-11.6189
744	-11.6191
3800	-11.6192
以现金	-11.6193
刊载	-11.6195
独立的	-11.6196
三方	-11.6198
结构化	-11.6199
405	-11.6199
▁1100	-11.6199
1.07%	-11.6199
四条	-11.6199
监管政策	-11.62
▁變動	-11.6201
能影响本报告客观性的利益冲突	-11.6201
入库	-11.6202
离岸	-11.6202
动向	-11.6202
2.25%	-11.6203
超跌	-11.6206
肝	-11.6207
OL	-11.6207
供应链管理	-11.6208
少数股东权益	-11.6209
854	-11.6209
1.09%	-11.621
并根据	-11.6211
金融工程	-11.6212
税前	-11.6212
召开的	-11.6212
2017-2019	-11.6213
的下降	-11.6214
三项	-11.6214
鉴	-11.6214
对企业	-11.6214
▁国泰君安	-11.6215
餐饮旅游	-11.6215
大类资产	-11.6216
灵活配置混合型证券投资基金	-11.6216
▁1,24	-11.6217
筑底	-11.6218
1.80%	-11.6219
▁年国内	-11.622
▁其他收益	-11.6221
安置	-11.6223
荷	-11.6223
微信公众号	-11.6225
融资融券余额合计	-11.6226
承担的	-11.6226
▁比亚迪	-11.6226
维持评级	-11.6227
半年度	-11.6228
基金投资	-11.6228
电芯	-11.6228
294	-11.623
▁每经	-11.623
商贸零售	-11.6231
响	-11.6231
▁末	-11.6231
2,500	-11.6234
▁12.3	-11.6236
带领	-11.6236
app	-11.6237
连板	-11.6237
发送本报告	-11.6238
占比较高	-11.6239
外部环境	-11.6242
983	-11.6242
▁央行	-11.6243
股债	-11.6243
个人所得税	-11.6243
颇	-11.6243
看空	-11.6244
有机硅	-11.6244
武汉市	-11.6244
证券账户	-11.6244
相关法律法规	-11.6247
收入同比增长	-11.6248
联合体	-11.6248
disclosure	-11.6248
1.23%	-11.6249
较上期	-11.6249
以来的	-11.6251
行业领先	-11.6252
颁布	-11.6253
▁本次交易	-11.6253
狮	-11.6254
磷酸	-11.6254
强国	-11.6255
bcqh	-11.6255
▁年加入华创证券研究所	-11.6256
乎	-11.6256
out	-11.6256
经济下行	-11.6257
江阴	-11.6257
0519	-11.6258
▁价	-11.626
诗	-11.6262
223	-11.6264
473	-11.6265
▁制造业	-11.6268
收购人	-11.627
独特	-11.6271
雯	-11.6271
转化为	-11.6272
及其关联方	-11.6272
生产和	-11.6272
0.0000%。	-11.6272
可靠的	-11.6273
往年	-11.6274
新时代证券	-11.6275
全流程	-11.6275
1]	-11.6275
Type	-11.6276
不得不	-11.6277
余家	-11.6277
既有	-11.6278
持续优化	-11.6279
装机量	-11.6279
963	-11.628
和企业	-11.6281
还需	-11.6281
▁年代	-11.6281
研发人员	-11.6281
6500	-11.6282
猫	-11.6282
因未投票默认弃权	-11.6282
日均成交量	-11.6282
摊	-11.6282
▁大连	-11.6283
百年	-11.6284
是否会	-11.6286
口岸	-11.6287
也就是说	-11.6287
数据跟踪	-11.6287
减持股份	-11.6288
▁7000	-11.6288
利于	-11.6288
产生重大影响	-11.6289
汇丰	-11.629
比上年同期增长	-11.6291
尘	-11.6292
30,000	-11.6292
绩效考核	-11.6294
夺	-11.6295
资信	-11.6295
1.13%	-11.6297
清晰准确地反映了本人的研究观点	-11.6297
条件下	-11.6298
▁融	-11.6298
汽车销量	-11.6299
关停	-11.6299
▁1.34	-11.63
筹码	-11.63
筹备	-11.6301
ard	-11.6301
line	-11.6303
所载	-11.6304
内幕信息	-11.6305
OI	-11.6306
強	-11.6306
酒业	-11.6306
但目前	-11.6307
煤炭价格	-11.6308
聪	-11.6308
的比例为	-11.6309
ci	-11.6309
894	-11.631
拟定	-11.631
创立	-11.631
基本稳定	-11.6311
▁13.1	-11.6312
长江证券	-11.6313
猛	-11.6313
数据分析	-11.6313
净增	-11.6314
海口	-11.6314
造船	-11.6315
Cl	-11.6316
原件	-11.6316
int	-11.6317
ti	-11.6318
CFA	-11.6318
第二名	-11.6321
突	-11.6322
▁1.37	-11.6323
地质	-11.6324
▁20.0%	-11.6325
坏账	-11.6325
▁本文	-11.6326
高基数	-11.6326
:1.	-11.6326
答	-11.6327
934	-11.6328
顶级	-11.6328
不会对公司	-11.6328
原糖	-11.6328
(02	-11.6329
趋严	-11.633
發行	-11.6332
积极拓展	-11.6335
本基金的	-11.6335
1.29%	-11.6336
▁i	-11.6336
当前股价	-11.6338
赋予	-11.6339
▁Oct	-11.6342
兴起	-11.6342
也将不会与本报告中	-11.6343
▁8.1	-11.6343
所得税率	-11.6343
流行	-11.6344
参与者	-11.6344
▁	-11.6345
投资设立	-11.6347
▁研究源于数据	-11.6348
本议案	-11.6348
▁1,28	-11.6348
si	-11.6348
▁36%	-11.6348
永续	-11.6348
中长期贷款	-11.6349
时间内	-11.6351
暴	-11.6352
软硬件	-11.6353
秦皇岛港	-11.6354
短信	-11.6355
▁15.0%	-11.6356
客户资源	-11.6358
为基数	-11.6358
档案	-11.6361
▁11.2	-11.6363
股派发现金红利	-11.6363
申万宏源	-11.6363
有望提升	-11.6364
焦化	-11.6365
▁290	-11.6365
年第四季度	-11.6366
商品期货	-11.6367
办公楼	-11.6367
工行	-11.6368
229	-11.6369
▁10.1	-11.637
氮	-11.6371
将来	-11.6371
受让方	-11.6371
车身	-11.6371
/5/1	-11.6373
售后服务	-11.6373
3/4	-11.6374
▁1.8%	-11.6374
融创	-11.6374
▁万套	-11.6377
经营性现金流	-11.6378
買入	-11.638
意见并未考虑到获取	-11.638
太平	-11.6382
跨越	-11.6382
的地方	-11.6382
4.50%	-11.6382
振华	-11.6382
▁r	-11.6383
南京市	-11.6385
FI	-11.6385
▁我们预计	-11.6386
肠	-11.6387
▁应付票据	-11.6388
隧道	-11.639
▁京	-11.639
考试	-11.639
丸	-11.639
第六届董事会	-11.6391
稻	-11.6391
▁We	-11.6392
及服务	-11.6394
文明	-11.6395
郑棉	-11.6395
服务体系	-11.6396
南海	-11.6397
乾	-11.6397
智能终端	-11.6397
招募说明书	-11.6399
空白	-11.64
新发	-11.6401
伊利股份	-11.6401
的证券或期权并进行证券或期权交易	-11.6401
849	-11.6402
0.2%,	-11.6403
able	-11.6403
盈亏	-11.6403
1%;	-11.6403
1.35%	-11.6404
-0.6	-11.6404
砖	-11.6405
16.00	-11.6406
871	-11.6407
美丽	-11.6407
电子邮件	-11.641
担保金额	-11.6411
▁管理费用率	-11.6411
千瓦	-11.6411
股为基数	-11.6412
▁证监会	-11.6412
▁13.6	-11.6413
▁	-11.6414
▁340	-11.6415
389	-11.6415
内盘	-11.6416
人民法院	-11.6416
巧	-11.6416
471	-11.6417
靖	-11.6417
1.17%	-11.6419
戈	-11.6419
税前利润	-11.6419
遭受	-11.642
▁-16	-11.6421
可通过	-11.6422
▁IT	-11.6422
是否有	-11.6426
影像	-11.6426
wang	-11.6427
中值	-11.6427
扫描	-11.6427
16.7	-11.6428
937	-11.6429
识	-11.6429
逆回购到期	-11.6432
食糖	-11.6432
另一个	-11.6432
935	-11.6433
得出结论	-11.6434
影业	-11.6434
城镇化	-11.6435
直到	-11.6435
一致预期	-11.6436
1409	-11.6436
医药板块	-11.6438
能力强	-11.6438
核心产品	-11.6439
使用权	-11.644
颜	-11.644
第五届董事会	-11.644
RT	-11.6441
是对	-11.6441
▁第二节	-11.6441
乃	-11.6441
市场流动性	-11.6442
77%	-11.6442
▁表决情况	-11.6442
证券行业	-11.6443
▁2002	-11.6444
▁子公司	-11.6444
硅料	-11.6445
成了	-11.6445
EX	-11.6445
高出	-11.6447
保税区	-11.6448
承诺事项	-11.6449
压缩机	-11.6451
等技术	-11.6453
楚	-11.6453
▁<	-11.6456
演绎	-11.6457
▁1,08	-11.6458
全渠道	-11.6458
股权比例	-11.6459
▁-3%	-11.6459
未来有望	-11.6462
入市需谨慎	-11.6463
新财富	-11.6463
▁13.4	-11.6465
2017-08	-11.6465
火爆	-11.6466
白皮书	-11.6467
边界	-11.6469
同等	-11.647
1.19%	-11.647
5,0	-11.6471
课题	-11.6471
▁1,30	-11.6472
年平均	-11.6473
有哪些	-11.6475
Wh	-11.6475
其他事项	-11.6476
传闻	-11.6476
高风险	-11.6477
9.00%	-11.6477
基金财产	-11.6478
文中	-11.6478
降雨	-11.6478
澜	-11.6479
已实现	-11.648
▁永	-11.648
▁有限合伙人	-11.6481
▁1.60	-11.6482
▁贵州	-11.6483
945	-11.6483
长期应收款	-11.6483
专业投资者	-11.6484
公积金	-11.6484
的安全	-11.6484
Stock	-11.6485
产业布局	-11.6485
更正	-11.6487
承担任何责任	-11.6487
分拆	-11.6489
▁股价表现	-11.6489
▁报告日期	-11.6489
0-1	-11.649
風險	-11.6491
投资者应当充分考虑自身特定	-11.6491
▁4.0%	-11.6495
34.	-11.6495
中国银河证券研究院	-11.6496
车险	-11.6497
斯特	-11.6497
资源整合	-11.6497
光伏玻璃	-11.6497
▁12.8	-11.6499
▁标普	-11.6499
立场	-11.6499
▁本议案	-11.65
划转	-11.65
沪铝	-11.6501
有效地	-11.6501
▁11.1	-11.6502
18.2	-11.6503
以上股份的股东	-11.6503
1.21%	-11.6503
提到的公司所发行的证券并进行交易	-11.6504
到账	-11.6506
合法权益	-11.6507
采用了	-11.6508
库存量	-11.6509
降本	-11.6509
的改善	-11.6511
监管层	-11.6511
行业景气	-11.6511
▁单位名称	-11.6512
脂	-11.6513
元人民币	-11.6513
的标的	-11.6513
▁14.2	-11.6514
电子信息	-11.6516
增持公司股份	-11.6516
842	-11.6517
社会资本	-11.6518
Fi	-11.6521
已超过	-11.6521
0515	-11.6523
▁wu	-11.6523
952	-11.6524
东盟	-11.6524
的迹象	-11.6525
扎	-11.6527
银行股	-11.653
▁亿欧元	-11.653
▁一种	-11.6531
公司盈利能力	-11.6535
复合肥	-11.6535
844	-11.6535
涌	-11.6536
其他应付款	-11.6538
寿	-11.6538
的经验	-11.6539
▁首先	-11.654
大幅减少	-11.6541
▁幅	-11.6542
重整	-11.6543
业绩补偿	-11.6544
901	-11.6545
佔	-11.6546
▁支	-11.6546
委会	-11.6547
环比提升	-11.6549
▁1.38	-11.6551
▁12.9	-11.6551
所在地	-11.6552
担任公司	-11.6553
联席	-11.6554
显示出	-11.6555
LI	-11.6558
▁-0.6	-11.656
TD	-11.656
尖	-11.656
35.00	-11.6561
联讯证券	-11.6562
昆山	-11.6562
836	-11.6562
总局	-11.6562
提高公司	-11.6564
▁1,23	-11.6564
流转	-11.6565
重点公司	-11.6565
651	-11.6568
开工建设	-11.6568
▁3500	-11.6569
部分企业	-11.6569
热力	-11.6571
催生	-11.6573
邀	-11.6574
国际贸易	-11.6574
32:	-11.6574
企业盈利	-11.6578
美妆	-11.6579
银行股份有限公司	-11.658
国电	-11.658
的经营范围包括证券投资咨询业务	-11.658
有關	-11.658
十九条	-11.658
等服务	-11.6581
句	-11.6581
本研究报告由中信证券	-11.6582
经办	-11.6582
元件	-11.6583
▁10.2	-11.6583
生产设备	-11.6583
▁Dec	-11.6584
柔	-11.6585
▁14.5	-11.6585
的销售人员	-11.6585
石墨烯	-11.6586
口罩	-11.6586
1.22%	-11.6586
▁NO	-11.6588
戏	-11.6589
权证	-11.659
将进入	-11.6593
▁9.	-11.6593
踏	-11.6594
跌幅居前	-11.6594
移动通信	-11.6594
窄幅震荡	-11.6595
▁(10)	-11.6596
Markit	-11.6596
已被	-11.6596
排行榜	-11.6596
體	-11.6597
0513	-11.66
最大回撤	-11.6601
逃	-11.6601
建工	-11.6601
WI	-11.6601
国有资本	-11.6603
油服	-11.6603
ark	-11.6603
2100	-11.6604
1.32%	-11.6604
银行理财产品	-11.6605
▁8.2	-11.6605
具体内容	-11.6605
供给侧结构性改革	-11.6606
1701	-11.6606
车用	-11.6606
io	-11.6607
616	-11.6608
17.8	-11.661
闸	-11.661
1401	-11.661
进行评估	-11.661
▁年加入	-11.661
和相关	-11.6611
顺序	-11.6612
▁its	-11.6614
新业态	-11.6615
广阔的	-11.6615
综合毛利率	-11.6618
991	-11.6618
绿地	-11.6619
均超过	-11.662
减排	-11.662
春季	-11.662
可持续性	-11.6621
达产	-11.6621
▁228	-11.6621
委员会委员	-11.6621
略微	-11.6622
TE	-11.6623
▁1,04	-11.6624
GO	-11.6624
大厂	-11.6625
的债务	-11.6627
蓉	-11.6627
资深	-11.6628
也可	-11.663
1231	-11.6631
幢	-11.6631
或股本	-11.6632
承诺人	-11.6632
追加	-11.6634
影响下	-11.6634
成本控制	-11.6634
492	-11.6634
双方将	-11.6635
1.28%	-11.6636
覆盖率	-11.6636
失去	-11.6638
務	-11.6638
申万研究	-11.6639
2015201620172018	-11.6639
娜	-11.664
227	-11.664
074	-11.664
你的	-11.6643
朝阳	-11.6644
将保持	-11.6646
活性	-11.6647
▁商誉	-11.6647
一年内到期的	-11.6647
▁质押	-11.6648
第四节	-11.6649
专精特新	-11.6649
1.33%	-11.6649
增长态势	-11.665
加深	-11.6652
恐慌	-11.6652
-200	-11.6652
简化	-11.6653
年产能	-11.6653
增加值	-11.6653
▁14.8	-11.6653
新冠肺炎疫情	-11.6656
资金流向一览	-11.6656
药店	-11.6656
的品种	-11.6657
滴滴	-11.6657
相关企业	-11.6658
草甘膦	-11.6659
熟	-11.6659
▁14.3	-11.666
936	-11.666
4-5	-11.6661
▁12.6	-11.6661
1,600	-11.6662
小程序	-11.6662
转股溢价率	-11.6663
电力设备及新能源	-11.6663
深圳市福田区	-11.6663
1.14%	-11.6664
預測	-11.6665
日收到	-11.6666
的商标	-11.6666
843	-11.6666
±5%	-11.6667
双轮驱动	-11.6667
通行	-11.6667
收储	-11.6668
▁陕西	-11.667
:021-6	-11.667
变得	-11.6671
黎	-11.6672
赶	-11.6672
将被	-11.6673
肉制品	-11.6673
40.0	-11.6675
友好	-11.6675
▁1.36	-11.6676
▁华北	-11.6677
▁RMB	-11.6678
卫视	-11.6679
金融监管	-11.6679
运转	-11.6681
存在较大	-11.6681
▁2020-09	-11.6682
战略规划	-11.6682
个城市	-11.6684
继续上涨	-11.6684
▁录	-11.6687
▁12.7	-11.6688
▁1.45	-11.6689
另有说明的除外	-11.6689
743	-11.669
1.27%	-11.669
金科	-11.6692
各部门	-11.6693
挺	-11.6693
危废	-11.6694
(0006	-11.6694
相关标的	-11.6694
昂	-11.6694
仅次于	-11.6695
展现	-11.6695
2017-04	-11.6695
948	-11.6695
楠	-11.6697
▁银行间	-11.6697
专用设备	-11.6698
复星	-11.6699
已具备证券投资咨询业务资格	-11.67
继续维持	-11.6701
库存股	-11.6701
分层	-11.6702
发展股份有限公司	-11.6702
财务公司	-11.6703
耳	-11.6704
▁1,09	-11.6704
原本	-11.6704
高纯	-11.6707
834	-11.6708
具体来看	-11.6709
▁指数下跌	-11.671
851	-11.6711
中国国际	-11.6711
中环	-11.6712
万平米	-11.6713
集中竞价	-11.6713
▁股东权益	-11.6713
万人次	-11.6715
雄安新区	-11.6715
到港	-11.6715
在产品	-11.6715
建设银行	-11.6717
股东利益	-11.6719
110001	-11.672
2016-03	-11.672
生意	-11.672
也可能	-11.672
无疑	-11.672
▁1.42	-11.6722
0.00-	-11.6723
持续向好	-11.6724
纸业	-11.6725
▁7.8	-11.6727
我们测算	-11.6727
极端	-11.6728
和完善	-11.6729
旬	-11.6729
351	-11.673
▁8,9	-11.6731
售电	-11.6731
984	-11.6732
常态	-11.6733
操作策略	-11.6734
割	-11.6734
开发者	-11.6735
南山	-11.6736
箭	-11.6736
提交股东大会审议	-11.6739
大楼	-11.674
市场指数	-11.674
进行会计处理	-11.6742
▁1.7%	-11.6742
控股集团	-11.6743
两融余额	-11.6744
潍坊	-11.6746
▁然而	-11.6746
JM	-11.6746
也为	-11.6746
政府采购	-11.6748
次月	-11.675
已达到	-11.675
ace	-11.6751
股份行	-11.6751
解决了	-11.6753
-0.9	-11.6754
建仓	-11.6754
任何人	-11.6755
▁20.00%	-11.6755
维持稳定	-11.6756
以自有资金	-11.6756
1.54%	-11.6758
薛	-11.676
相关工作	-11.676
珠三角	-11.6761
傅	-11.6763
9-1	-11.6765
病例	-11.6766
▁海南	-11.6766
40%。	-11.6767
相对于沪深	-11.6767
批准的	-11.6767
厨房	-11.6768
欢	-11.6769
请联系我们	-11.6769
稳定在	-11.677
主要是因为	-11.6772
▁会议	-11.6774
+6	-11.6775
14.7%	-11.6775
旗舰	-11.6776
資金	-11.6776
2035	-11.6778
物料	-11.6778
限售期	-11.6778
携程	-11.6779
他的	-11.6779
▁股东权益合计	-11.6781
主要原因	-11.6782
▁233	-11.6782
;(4)	-11.6783
封测	-11.6784
最优	-11.6785
按时	-11.6785
具体情况	-11.6786
本法律意见书	-11.6786
创作	-11.6786
的现金净额	-11.6788
收益法	-11.6788
1.90%	-11.6789
化进程	-11.679
协定	-11.6791
挖掘机	-11.6791
疫情对	-11.6791
水处理	-11.6792
商谈	-11.6793
年复合增长率	-11.6794
▁238	-11.6794
镍矿	-11.6795
區	-11.6795
收件人	-11.6796
俱乐部	-11.6797
IM	-11.6797
工控	-11.6797
归母净利润分别为	-11.6797
941	-11.6797
钢企	-11.6798
廖	-11.6799
▁247	-11.68
第三次	-11.68
经济学硕士	-11.68
逆变器	-11.6801
★	-11.6802
只股票	-11.6802
永久	-11.6803
▁14.1	-11.6804
第三届董事会第	-11.6806
黑色金属	-11.6806
2018-05	-11.6807
▁1,07	-11.6808
226	-11.681
zheng	-11.681
增长空间	-11.6811
高成长	-11.6812
数据统计	-11.6812
直接投资	-11.6815
紧缺	-11.6817
以上股东	-11.6818
[...]
